{
    "Assign": 60280,
    "\u0120bolts": 56144,
    "IMGIMGDDCBZ": 3325,
    "<reserved08721>": 8725,
    "screen": 27963,
    "\u0120billed": 55820,
    "\u0120zeh": 50918,
    "ective": 39956,
    "endra": 53933,
    "\u0120Turb": 64905,
    "world": 24521,
    "<reserved11076>": 11080,
    "\u0120suspicions": 61713,
    "\u00d0\u00b8\u00d0\u00b2": 36263,
    "IMGIMGCAJCZ": 2096,
    "\u0120Laser": 50173,
    "IMGIMGECGDZ": 4267,
    "<reserved09965>": 9969,
    "\u00ce\u00b9\u00ce\u00b1": 36289,
    "\u0120\u00e1\u0125\u0134": 55305,
    "\u0120Pirates": 46191,
    "IMGIMGHBGFZ": 7169,
    "R": 16433,
    "\u0120hect": 46994,
    "<reserved09104>": 9108,
    "\u0120upheld": 52058,
    "IMGIMGHDEJZ": 7353,
    "\u0120March": 18810,
    "\u0120gl": 18043,
    "\u0120clubs": 27000,
    "\u0120MN": 41599,
    "\u0120cran": 56322,
    "\u0120bear": 24180,
    "\u0120Javascript": 63427,
    "\u0120another": 17653,
    "\u0120NYC": 32128,
    "Subscription": 58585,
    "IMGIMGHFDGZ": 7540,
    "pect": 17149,
    "\u00d0\u00b5\u00d0\u00bb": 20547,
    "<reserved13678>": 13682,
    "<reserved15823>": 15827,
    "\u0120quite": 18761,
    "\u0120battle": 21369,
    "\u00b8\u00b0": 36662,
    "\u0120cros": 40959,
    "\u00e5\u00bb\u00ba": 45887,
    "\u0120foes": 63281,
    "exec": 28600,
    "IMGIMGBIJFZ": 1899,
    "\u0120adventures": 34328,
    "\u0120Scripture": 39362,
    "\u0120ascending": 54670,
    "arettes": 36071,
    "emer": 38211,
    "IMGIMGDJIFZ": 3989,
    "<reserved10005>": 10009,
    "Align": 58795,
    "peptide": 65415,
    "chef": 50458,
    "\u0120perfect": 19303,
    "\u0120Florida": 21000,
    "<reserved13771>": 13775,
    "\u0120advis": 24559,
    "\u0120Documentary": 56031,
    "\u00d0\u00b0\u00d0\u00bb\u00d1\u012d": 56846,
    "serving": 58745,
    "\u0120PAN": 64576,
    "<reserved14547>": 14551,
    "arter": 18580,
    "Wer": 55490,
    "itimate": 55065,
    "\u0120Ahead": 56631,
    "<reserved09726>": 9730,
    "\u0120documents": 22593,
    "Ja": 48028,
    "Vs": 36292,
    "\u0120Grow": 27031,
    "IMGIMGIJGZ": 900,
    "<reserved13457>": 13461,
    "\u0120temperament": 64788,
    "Bat": 41930,
    "IMGIMGFEABZ": 5405,
    "bled": 43813,
    "hens": 21170,
    "IMGIMGFFJAZ": 5594,
    "\u0120nerv": 24768,
    "umm": 32848,
    "\u0120Hope": 23912,
    "\u0120resonate": 59202,
    "\u0120Sponsor": 52235,
    "IMGIMGHDFDZ": 7357,
    "\u0120glut": 44960,
    "\u0120Outstanding": 50080,
    "IMGIMGBBDJZ": 1143,
    "\u0120Safety": 26880,
    "oint": 17814,
    "\u0120penalty": 26957,
    "\u0120Lam": 28779,
    "\u0120stacking": 63100,
    "Think": 36999,
    "<reserved13971>": 13975,
    "\u0120thigh": 41514,
    "\u0120RT": 31690,
    "<reserved16005>": 16009,
    "IMGIMGCDIAZ": 2384,
    "\u0120vibr": 28446,
    "\u0120prolong": 34470,
    "ears": 21867,
    "\u0120flexibility": 29636,
    "\u0120confront": 26356,
    "\u0120undeniable": 61148,
    "\u0120reinst": 48470,
    "samples": 59209,
    "\u0120selves": 59234,
    "\u0120proceedings": 30273,
    "<reserved13591>": 13595,
    "<reserved13474>": 13478,
    "\u0120Enforcement": 41423,
    "\u0120truths": 42965,
    "\u0120prevent": 19650,
    "\u0120curtains": 55384,
    "vacc": 56611,
    "<sentinel:190>": 8388,
    "Arrays": 56774,
    "\u0120revision": 37173,
    "\u0120couples": 30331,
    "varepsilon": 29650,
    "Thought": 50629,
    "\u0120Lal": 54978,
    "\u00cf\u012f": 32373,
    "\u0120Derrick": 63373,
    "\u00e8\u0126": 57193,
    "\u0120Crit": 28228,
    "\u0120Tate": 48690,
    "\u0120Fox": 24334,
    "IMGIMGDCIEZ": 3288,
    "\u0120VIP": 44137,
    "\u0120embar": 47519,
    "\u0120Execut": 56636,
    "<reserved15026>": 15030,
    "\u0120Issue": 35374,
    "\u0120Atlas": 45356,
    "\u0120Silicon": 41836,
    "IMGIMGDCBFZ": 3219,
    "\u0120candles": 47857,
    "\u0120administrative": 27770,
    "IMGIMGHDGGZ": 7370,
    "<reserved12005>": 12009,
    "\u0120Job": 29990,
    "<reserved10963>": 10967,
    "IMGIMGEJCDZ": 4927,
    "\u0120ammo": 45574,
    "<reserved11930>": 11934,
    "\u0120PU": 42849,
    "<reserved14450>": 14454,
    "IMGIMGGEDJZ": 6443,
    "IMGIMGFDIBZ": 5385,
    "\u0120guitar": 23723,
    "\u0120Cul": 43988,
    "\u0120Explore": 50607,
    "\u0120intracellular": 51705,
    "<reserved13276>": 13280,
    "aghan": 62028,
    "IMGIMGEBFEZ": 4158,
    "Indust": 46212,
    "\u0120chor": 56877,
    "angen": 62293,
    "ffect": 21709,
    "\u0120Satellite": 56715,
    "\u0120menstrual": 62732,
    "\u0120gr\u00c3\u00b6\u00c3\u0141": 51287,
    "adul": 61671,
    "IMGIMGGEFFZ": 6459,
    "\u0120reader": 24223,
    "\u0120election": 20898,
    "\u0120Ventura": 63385,
    "\u0120\u00e0\u00b0\u00a8": 50122,
    "IMGIMGBFHIZ": 1582,
    "IMGIMGIIHZ": 891,
    "<reserved09795>": 9799,
    "\u0120sever": 31465,
    "\u0120deer": 36330,
    "IMGIMGFDJGZ": 5400,
    "BACK": 48420,
    "apolis": 28959,
    "\u0120Romance": 42803,
    "attrs": 49741,
    "IMGIMGGIBIZ": 6822,
    "<reserved12127>": 12131,
    "Vari": 31297,
    "\u0120departure": 31653,
    "\u0120Consolid": 56117,
    "ised": 17845,
    "\u0120Xia": 47983,
    "\u0120READ": 40714,
    "\u00eb\u013f\u00bc": 46421,
    "shal": 48733,
    "IMGIMGGBZ": 65,
    "obil": 39933,
    "\u00e6\u00b5\u0123": 53612,
    "\u0120cuc": 56682,
    "bud": 40142,
    "izers": 34327,
    "IMGIMGFEBGZ": 5420,
    "\u0120undergrad": 52750,
    "\u0120wrists": 64883,
    "\u0120sq": 32427,
    "\u0120warming": 30202,
    "\u0120fatally": 63709,
    "<reserved13961>": 13965,
    "\u0120mistakes": 27113,
    "\u0120unter": 27235,
    "<reserved10503>": 10507,
    "\u00e5\u0127\u0125": 43472,
    "IMGIMGIAHGZ": 8080,
    "\u0120resid": 25526,
    "\u0120believers": 39657,
    "<reserved12964>": 12968,
    "<reserved13444>": 13448,
    "IMGIMGFCJDZ": 5297,
    "\u0120gods": 31427,
    "\u0120letzten": 54564,
    "\u0120subscribed": 62326,
    "<reserved10116>": 10120,
    "cov": 45380,
    "\u0120Q": 17695,
    "\u0120unresolved": 63777,
    "\u0120Brew": 31183,
    "\u00d5\u00b8": 20959,
    "\u0120represents": 23294,
    "\u0120intoler": 56068,
    "<sentinel:373>": 8571,
    "<reserved15306>": 15310,
    "colo": 57767,
    "IMGIMGDICAZ": 3824,
    "oto": 19636,
    "\u0120stimulation": 36602,
    "<reserved12163>": 12167,
    "\u0120sunrise": 55628,
    "\u00e0\u00b3": 21175,
    "\u0120forgotten": 28280,
    "\u0120Symph": 37670,
    "CONT": 52482,
    "Administ": 53128,
    "\u0120mo\u00c5\u00be": 60410,
    "haired": 56316,
    "<reserved08808>": 8812,
    "fw": 53916,
    "IMGIMGEIJEZ": 4898,
    "\u0120cytok": 43386,
    "IMGIMGCHEAZ": 2744,
    "\u0120ling": 39292,
    "\u0120Transform": 47673,
    "IMGIMGCFIZ": 262,
    "IMGIMGEGIFZ": 4689,
    "IMGIMGFECJZ": 5433,
    "\u0120heroes": 30069,
    "IMGIMGCDHIZ": 2382,
    "\u0120reint": 64232,
    "\u0120JA": 58655,
    "IMGIMGBDCAZ": 1324,
    "\u0120chew": 55917,
    "\u0120stat": 17628,
    "mean": 41094,
    "\u0120Palestinians": 36812,
    "\u0120relativ": 49951,
    "Jo": 25363,
    "<reserved11193>": 11197,
    "\u0120rental": 30063,
    "\u0120heirs": 61198,
    "\u0120Sue": 39089,
    "omes": 28470,
    "<reserved14922>": 14926,
    "\u00c3\u0130": 46865,
    "\u0120redirect": 38862,
    "IMGIMGIAIJZ": 8093,
    "\u0120sane": 52025,
    "IMGIMGCAFHZ": 2061,
    "<reserved14815>": 14819,
    "constra": 53408,
    "\u0120smoking": 27169,
    "\u0120Fed": 29142,
    "\u0120Williamson": 50274,
    "\u00e4\u00b8\u012f": 35600,
    "<reserved08851>": 8855,
    "\u0120ant": 18241,
    "<reserved11783>": 11787,
    "Kal": 49282,
    "\u0120from": 16815,
    "\u0120Dream": 26520,
    "<reserved08938>": 8942,
    "\u0120implied": 36094,
    "secut": 23186,
    "\u0120metabolites": 58928,
    "IMGIMGFEHGZ": 5480,
    "cott": 33254,
    "ouch": 19316,
    "IMGIMGCHIBZ": 2785,
    "\u0120Pref": 54164,
    "\u0120sections": 25419,
    "<reserved11088>": 11092,
    "IMGIMGCCGEZ": 2268,
    "\u0120workouts": 51407,
    "\u0120uranium": 47712,
    "\u0120introducing": 32728,
    "<reserved10400>": 10404,
    "\u00e0\u00a8\u00b0": 43971,
    "OTS": 56807,
    "yard": 25867,
    "\u00e5\u0128\u0127": 38933,
    "IMGIMGIFCZ": 856,
    "IMGIMGBHIEZ": 1788,
    "<reserved11710>": 11714,
    "<reserved09607>": 9611,
    "<reserved12589>": 12593,
    "<reserved14704>": 14708,
    "\u0120dedicated": 22774,
    "<reserved14955>": 14959,
    "IMGIMGFEGEZ": 5468,
    "\u0120journalism": 33706,
    "<sentinel:471>": 8669,
    "IMGIMGCEAHZ": 2411,
    "\u0120Hath": 60359,
    "IMGIMGHDJDZ": 7397,
    "<reserved14508>": 14512,
    "<reserved14818>": 14822,
    "\u0120scholars": 31593,
    "\u0120broaden": 52500,
    "<reserved13505>": 13509,
    "AAA": 52406,
    "ruly": 54191,
    "urn": 17013,
    "<reserved13319>": 13323,
    "iena": 61267,
    "\u0120maj": 28415,
    "IMGIMGGJGBZ": 6965,
    "\u0120startup": 33372,
    "\u0120bipolar": 48231,
    "\u0120bal": 19896,
    "\u0120benchmark": 36850,
    "\u0120Diplom": 52522,
    "<reserved10994>": 10998,
    "backed": 42324,
    "<reserved15114>": 15118,
    "\u0120oc": 55482,
    "\u0120Vega": 63963,
    "\u0120revis": 33572,
    "IMGIMGEGADZ": 4607,
    "\u0120bisexual": 53479,
    "Mi": 46413,
    "ctrine": 29528,
    "\u0120trivial": 39662,
    "\u0120ABOUT": 51147,
    "IMGIMGGDEJZ": 6353,
    "\u0120East": 20130,
    "\u00d8\u00a8\u00d8\u00b1": 31781,
    "\u0120carers": 61163,
    "irable": 29108,
    "<reserved08713>": 8717,
    "\u0120n": 16686,
    "\u0120wears": 39140,
    "\u0120Harding": 63566,
    "IMGIMGEBJEZ": 4198,
    "\u0120season": 18217,
    "Following": 31181,
    "\u0120matters": 22742,
    "IMGIMGHABEZ": 7018,
    "\u0120ehe": 54053,
    "\u0120talk": 17966,
    "asma": 28122,
    "\u0120deren": 59442,
    "\u0120ensure": 20303,
    "\u0120ah": 38814,
    "<reserved09518>": 9522,
    "\u0120consolidate": 57494,
    "\u0120Tree": 30621,
    "\u0120reluctantly": 61617,
    "<reserved11428>": 11432,
    "\u0120coconut": 45212,
    "\u0120cable": 26175,
    "\u0120occupies": 57829,
    "\u0120disband": 65498,
    "\u0120accredited": 37461,
    "\u0120ninety": 54100,
    "\u0120symbols": 32741,
    "\u0120launch": 21529,
    "IMGIMGEFGAZ": 4564,
    "\u0120Pric": 53555,
    "<reserved14952>": 14956,
    "\u0120imm": 18989,
    "\u0120Crafts": 64989,
    "<reserved11167>": 11171,
    "\u0120Gret": 48614,
    "\u0120Blind": 44842,
    "<reserved10645>": 10649,
    "erving": 31031,
    "\u0120chefs": 49503,
    "IMGIMGDJHBZ": 3975,
    "IMGIMGGDADZ": 6307,
    "\u0120Paper": 30051,
    "<reserved10630>": 10634,
    "\u00e4\u00bb": 21997,
    "\u0120handc": 60447,
    "\u0120Dur": 28182,
    "\u0120sacrifices": 44798,
    "ctica": 50778,
    "cheidung": 57600,
    "\u0120Nebraska": 36583,
    "IMGIMGEHDFZ": 4739,
    "Islam": 41858,
    "\u0120Has": 24434,
    "Word": 39159,
    "\u0120binary": 32675,
    "IMGIMGDEGDZ": 3467,
    "IMGIMGDCGGZ": 3270,
    "<reserved15106>": 15110,
    "\u0120Finn": 35116,
    "\u0120financially": 34643,
    "\u0120Gal": 22845,
    "IMGIMGHJIAZ": 7984,
    "<reserved10225>": 10229,
    "\u0120id": 19931,
    "\u0120lit": 23714,
    "\u0120luckily": 58607,
    "iazza": 63996,
    "fps": 56995,
    "\u0120overe": 46763,
    "\u00e3\u0123\u00a3\u00e3\u0123\u00a6": 33428,
    "IMGIMGHEGHZ": 7471,
    "uploads": 36913,
    "<reserved10417>": 10421,
    "execute": 36587,
    "<reserved15137>": 15141,
    "\u0120Funeral": 39592,
    "\u00d6\u0122": 20731,
    "osti": 41828,
    "\u0120kein": 48851,
    "Evil": 59271,
    "\u00e6\u0137": 26301,
    "\u0120commemorate": 55103,
    "\u0120\u00d0\u00b3\u00d1\u0122\u00d0\u00b0": 46253,
    "wine": 59538,
    "\u0120municip": 26848,
    "<reserved12862>": 12866,
    "Breaking": 56600,
    "\u0120musical": 23489,
    "\u0120PvP": 57478,
    "\u0120prv": 50868,
    "\u0120cartoons": 49797,
    "\u0120pl": 16852,
    "\u0120curiosity": 35388,
    "\u0120conflicting": 46401,
    "\u0120Alt": 31207,
    "\u0120adjoining": 60756,
    "com": 17070,
    "\u0120Warwick": 51640,
    "<sentinel:268>": 8466,
    "orst": 48397,
    "noxious": 56749,
    "lets": 23768,
    "aris": 39027,
    "\u0120DE": 24077,
    "\u0120actually": 18040,
    "IMGIMGEAJGZ": 4100,
    "filled": 37531,
    "veland": 29095,
    "\u0120ped": 23237,
    "\u0120grocery": 32560,
    "IMGIMGEGBDZ": 4617,
    "\u0120interess": 61926,
    "IMGIMGDJFFZ": 3959,
    "\u0120meh": 65346,
    "<reserved15015>": 15019,
    "IMGIMGHBDFZ": 7139,
    "<reserved10408>": 10412,
    "<reserved13515>": 13519,
    "\u00e7\u013f": 48790,
    "\u0120ver": 18361,
    "\u0120obtained": 21715,
    "\u0120Hipp": 54324,
    "<sentinel:24>": 8222,
    "\u0120Advice": 45471,
    "<reserved14316>": 14320,
    "\u00e0\u00a6\u00ac": 31837,
    "IMGIMGGBBHZ": 6121,
    "imutang": 45429,
    "\u0120Julius": 50215,
    "\u0120Beit": 61649,
    "Studies": 61998,
    "\u0120attract": 21174,
    "thlet": 22641,
    "\u00e5\u00af\u00b9": 58389,
    "\u0120avait": 46574,
    "<reserved12048>": 12052,
    "empty": 28085,
    "<reserved13413>": 13417,
    "\u0120dispatched": 54903,
    "\u0120desperate": 30619,
    "elig": 46832,
    "\u00c3\u0142nh": 51370,
    "\u00e4\u00bf\u00a1": 46800,
    "olation": 38718,
    "Trying": 61860,
    "\u0120spectro": 42414,
    "IMGIMGFJGEZ": 5968,
    "<reserved15521>": 15525,
    "<reserved12833>": 12837,
    "paces": 56381,
    "\u0120marine": 30460,
    "IMGIMGCCBHZ": 2221,
    "Compare": 47130,
    "\u0120Chip": 42674,
    "ieur": 54693,
    "refix": 30927,
    "IMGIMGHDEDZ": 7347,
    "\u0120freezing": 39684,
    "\u0120compressor": 61240,
    "chemical": 30448,
    "Generated": 47141,
    "\u0120bureau": 50246,
    "\u0120Regulation": 37686,
    "imore": 28922,
    "\u0120unsatisf": 59867,
    "IMGIMGGEDDZ": 6437,
    "ivo": 26991,
    "ructions": 24349,
    "<reserved15346>": 15350,
    "\u0120concealed": 46606,
    "\u0120positioned": 34188,
    "\u0120sia": 64887,
    "\u0120worms": 51001,
    "Occup": 59744,
    "Monitor": 48903,
    "Jack": 28367,
    "frared": 64570,
    "ev": 18888,
    "\u0120rhythms": 53569,
    "\u0120Worth": 33834,
    "eten": 35817,
    "imity": 35110,
    "nee": 39381,
    "\u0120performing": 24729,
    "\u0120factual": 46641,
    "\u0120comed": 32304,
    "\u0120explores": 34157,
    "<reserved12012>": 12016,
    "\u0120\u00e0\u00b0": 21322,
    "\u0120todo": 45602,
    "IMGIMGHAFHZ": 7061,
    "IMGIMGEHCJZ": 4733,
    "\u0120possession": 27669,
    "IMGIMGFJFJZ": 5963,
    "Church": 51821,
    "IMGIMGHDIJZ": 7393,
    "<reserved10491>": 10495,
    "uy": 20649,
    "\u0120commissioners": 52611,
    "IMGIMGIBFFZ": 8159,
    "\u0120Hom": 24627,
    "\u00e0\u00a4\u00bf": 24330,
    "\u0120decor": 26297,
    "IMGIMGFCCBZ": 5225,
    "\u0120unconscious": 39220,
    "\u0120snapped": 40404,
    "Chip": 61428,
    "IMGIMGGCJHZ": 6301,
    "\u0120discretion": 34100,
    "<reserved14805>": 14809,
    "\u0120inflammation": 33167,
    "kin": 22326,
    "\u0120colonies": 40952,
    "\u00e0\u00b1\u0128": 46434,
    "<reserved09897>": 9901,
    "awt": 55194,
    "\u0120disparity": 57848,
    "\u0120faux": 60844,
    "\u0120Memory": 37539,
    "\u0120highway": 31179,
    "<reserved09205>": 9209,
    "\u0120sod": 31556,
    "\u0120Trailer": 44234,
    "IMGIMGGBAHZ": 6111,
    "\u0120bestselling": 49361,
    "\u0120oils": 38994,
    "Need": 40045,
    "\u0120Saud": 58882,
    "ike": 18080,
    "\u00e6\u013b": 43554,
    "rehens": 22600,
    "must": 39229,
    "\u0120Agriculture": 33969,
    "<reserved08993>": 8997,
    "<reserved15112>": 15116,
    "\u0120benches": 61369,
    "\u0120Newark": 52085,
    "IMGIMGDFAAZ": 3504,
    "\u0120School": 18795,
    "IND": 29352,
    "\u0120Kah": 57807,
    "IMGIMGBGCAZ": 1624,
    "IMGIMGEIIIZ": 4892,
    "IMGIMGDGFFZ": 3659,
    "<reserved09076>": 9080,
    "\u0120panel": 22765,
    "college": 58969,
    "\u0120\u00c4\u0132": 45867,
    "\u0120rent": 22959,
    "\u0120insignificant": 52896,
    "<reserved12179>": 12183,
    "<reserved09784>": 9788,
    "\u0120passage": 27470,
    "\u0120Nah": 31512,
    "\u0120possesses": 46109,
    "\u0120stacks": 48929,
    "\u00e5\u00b7": 26167,
    "\u0120surve": 25569,
    "\u0120columnist": 49172,
    "\u0120\u00d8\u00b3\u00d8\u00a7\u00d9\u0126": 61862,
    "\u0120conver": 22802,
    "IMGIMGECAZ": 424,
    "\u0120cush": 43730,
    "\u0120stretch": 25380,
    "ders": 27888,
    "IMGIMGHEBGZ": 7420,
    "IMGIMGBGGCZ": 1666,
    "\u0120Beginning": 47888,
    "\u0120\u00ec\u012a\u013a": 60907,
    "Hey": 27064,
    "ughters": 28923,
    "las": 22255,
    "\u0120majority": 20987,
    "neath": 34478,
    "ktop": 28880,
    "\u0120erupt": 61203,
    "Scale": 39112,
    "lib": 24891,
    "\u0120Securities": 31250,
    "riet": 49708,
    "\u0120specialist": 28342,
    "IMGIMGCHIAZ": 2784,
    "\u0120Jess": 28674,
    "\u0120rupture": 62219,
    "clusion": 21462,
    "<reserved15917>": 15921,
    "IMGIMGDHBIZ": 3722,
    "\u0120sm": 17295,
    "<reserved13154>": 13158,
    "Cor": 25502,
    "Ptr": 34546,
    "Mu": 46158,
    "he": 16643,
    "reach": 30502,
    "\u0120Turning": 57852,
    "<reserved09482>": 9486,
    "\u0120energy": 18712,
    "IMGIMGBFAEZ": 1508,
    "shirt": 34961,
    "\u00e0\u00b8\u00aa": 31934,
    "\u0120residency": 40612,
    "IMGIMGGJJCZ": 6996,
    "STRING": 47080,
    "\u0120predictor": 58736,
    "\u0120secure": 22984,
    "\u0120kommen": 49861,
    "IMGIMGHFCBZ": 7525,
    "\u0120HEL": 54222,
    "\u0120Collection": 29139,
    "UCT": 36695,
    "\u0120reality": 20835,
    "IMGIMGEDEIZ": 4352,
    "<reserved15893>": 15897,
    "IMGIMGCCHEZ": 2278,
    "\u0120tools": 21194,
    "OUND": 35049,
    "enta": 38564,
    "\u0120databases": 37155,
    "\u0120capacities": 47079,
    "pending": 50297,
    "oriously": 57880,
    "IMGIMGEHEFZ": 4749,
    "\u0120towering": 62673,
    "ocation": 21985,
    "\u0120Frage": 61836,
    "IMGIMGDCFIZ": 3262,
    "\u0120Falls": 31305,
    "\u0120rehears": 39914,
    "IMGIMGBDBHZ": 1321,
    "\u0120malignant": 51868,
    "\u00e3\u0124\u00a2\u00e3\u0125\u00ab": 62826,
    "IMGIMGEGDJZ": 4643,
    "IMGIMGBJIJZ": 1993,
    "IMGIMGCHAFZ": 2709,
    "aky": 31579,
    "IMGIMGBIBBZ": 1815,
    "IMGIMGFFCGZ": 5530,
    "Messages": 47878,
    "\u0120seeming": 55655,
    "\u0120prayed": 44244,
    "IMGIMGGGDHZ": 6641,
    "IMGIMGHDIAZ": 7384,
    "\u0120\u00d1\u0123\u00d1\u0124\u00d1\u0122\u00d0\u00b0": 58547,
    "\u0120Tried": 64404,
    "\u0120her": 16968,
    "<sentinel:63>": 8261,
    "\u0120efficient": 22547,
    "\u0120fu": 28607,
    "\u0120Odyssey": 53689,
    "\u0120Oslo": 50849,
    "\u0120Blitz": 64881,
    "\u0120Architects": 53412,
    "\u0120backlash": 47512,
    "ilt": 18727,
    "\u0120Exploration": 58468,
    "IMGIMGHIBGZ": 7820,
    "\u0120overwhelmed": 37373,
    "\u0120Reid": 38660,
    "\u0120pitchers": 54234,
    "<reserved15732>": 15736,
    "\u0120\u00d0\u00ba\u00d0\u00bc": 60103,
    "IMGIMGEGAEZ": 4608,
    "<reserved11450>": 11454,
    "\u0120compet": 18538,
    "covered": 54303,
    "Prov": 25718,
    "IMGIMGEBCDZ": 4127,
    "\u0120tuber": 45281,
    "cytes": 63265,
    "\u0120economically": 40498,
    "management": 39653,
    "\u0120Molecular": 47094,
    "fal": 48322,
    "Components": 58909,
    "Search": 28766,
    "\u0120intellectually": 60854,
    "\u0120chall": 18680,
    "VER": 23817,
    "\u0120struggled": 30990,
    "\u0120mutation": 37394,
    "boys": 33104,
    "\u0120Shot": 43061,
    "\u0120logo": 29661,
    "handed": 36236,
    "ody": 17509,
    "\u0120subspecies": 56898,
    "\u0120Steam": 35791,
    "matt": 57177,
    "<reserved13349>": 13353,
    "\u0120Rabbi": 48058,
    "ymoon": 52458,
    "<reserved10668>": 10672,
    "\u00e7\u013e": 31927,
    "IMGIMGBDCEZ": 1328,
    "IMGIMGDAGCZ": 3066,
    "\u0120UEFA": 52244,
    "thens": 59579,
    "listed": 34007,
    "rw": 63370,
    "<reserved12537>": 12541,
    "<reserved14334>": 14338,
    "\u0120hypotheses": 55982,
    "IMGIMGBEDHZ": 1441,
    "<reserved11970>": 11974,
    "\u0120employing": 41315,
    "\u0120mortgages": 46636,
    "IMGIMGHIAEZ": 7808,
    "IMGIMGFFFDZ": 5557,
    "\u0120salaries": 37741,
    "\u0120improvement": 24206,
    "riction": 57442,
    "\u0120Against": 31855,
    "IMGIMGCGCBZ": 2625,
    "\u00e0\u00a6\u00be": 22071,
    "\u0120idol": 42144,
    "IMGIMGHEIDZ": 7487,
    "IMGIMGFBEZ": 518,
    "\u0120testify": 45276,
    "\u0120res": 16941,
    "\u0120resistance": 23759,
    "\u0120Dai": 65305,
    "\u0120neural": 35176,
    "\u0120employees": 20552,
    "\u0120gluc": 30628,
    "<reserved12172>": 12176,
    "velength": 35313,
    "onen": 54475,
    "\u0120Uran": 61542,
    "\u0120commands": 33421,
    "shit": 28475,
    "\u0120range": 18898,
    "\u0120spins": 53256,
    "\u0120WH": 24015,
    "\u0120UR": 61844,
    "ptoms": 46875,
    "Anna": 48087,
    "ilage": 56978,
    "\u0120Petition": 51643,
    "\u0120therm": 24838,
    "ental": 19553,
    "\u0120mimic": 49293,
    "Director": 38809,
    "\u0120Madison": 32642,
    "FW": 38257,
    "\u0120fiction": 25193,
    "\u0120Hank": 46998,
    "\u00e0\u00bd\u00a6": 49234,
    "\u0120descend": 50728,
    "IMGIMGCDJEZ": 2398,
    "\u00e0\u00b2\u00b0": 29526,
    "<reserved09110>": 9114,
    "\u0120premiums": 43944,
    "irut": 57548,
    "\u00d1\u0123\u00d0\u00ba\u00d0\u00b8\u00d0\u00b5": 53764,
    "\u0120Olivier": 62520,
    "\u0120weapons": 23059,
    "\u0120Ike": 54275,
    "\u0120cyt": 40479,
    "\u00e5\u0127": 21211,
    "\u0120defend": 22264,
    "\u0120utilized": 33566,
    "\u0120weekends": 35017,
    "\u0120depth": 23437,
    "<reserved16188>": 16192,
    "\u0120reactive": 44465,
    "\u0120Cairo": 45493,
    "<reserved13658>": 13662,
    "aud": 25192,
    "\u0120candy": 35693,
    "<reserved09367>": 9371,
    "araoh": 57354,
    "\u0120Schools": 28306,
    "\u0120akin": 46089,
    "\u0120occl": 58421,
    "\u0120solitude": 63283,
    "\u0120risks": 23699,
    "\u0120Excel": 41986,
    "IMGIMGCGIHZ": 2691,
    "IMGIMGCDDZ": 237,
    "meat": 61154,
    "IMGIMGBFFIZ": 1562,
    "\u0120terr": 26718,
    "\u0120frontal": 57128,
    "\u0120Mort": 28505,
    "\u0120incorporating": 41139,
    "rede": 60690,
    "IMGIMGBDBAZ": 1314,
    "\u00e6\u013e\u012a": 24298,
    "\u0120bankruptcy": 34553,
    "IMGIMGCFHBZ": 2575,
    "<reserved10905>": 10909,
    "Mach": 62271,
    "IZ": 35006,
    "\u0120Hilary": 65381,
    "IMGIMGCIEFZ": 2849,
    "<reserved15300>": 15304,
    "position": 22709,
    "along": 43807,
    "<reserved09711>": 9715,
    "\u0120Bordeaux": 64804,
    "\u00e9\u0127": 44766,
    "\u0120aggress": 39166,
    "Jake": 52557,
    "<reserved11302>": 11306,
    "rops": 54289,
    "var": 17979,
    "\u00e2\u0122\u0130": 42755,
    "\u0120Transportation": 32808,
    "IMGIMGDCCIZ": 3232,
    "license": 54263,
    "IMGIMGHHIBZ": 7785,
    "<reserved14153>": 14157,
    "LOL": 56779,
    "Sax": 58708,
    "ona": 20406,
    "ipped": 22149,
    "ership": 45830,
    "IMGIMGHCJFZ": 7299,
    "\u0120boycott": 50800,
    "IMGIMGFIAHZ": 5811,
    "\u0120medieval": 35726,
    "\u0120hear": 19339,
    "\u0120sehen": 52840,
    "Dirty": 55113,
    "\u00d0\u00b3\u00d0\u00b0": 29502,
    "\u0120Petroleum": 48248,
    "\u0120given": 18201,
    "<reserved12499>": 12503,
    "ibli": 34289,
    "\u00d0\u00be\u00d1\u0123\u00d1\u0124": 25130,
    "\u0120Prison": 38729,
    "opf": 45282,
    "\u0120pricing": 30180,
    "index": 21190,
    "avoid": 47759,
    "Latest": 49187,
    "IMGIMGGHFFZ": 6759,
    "\u0120deep": 19431,
    "\u0120\u00e0\u00a4\u00aa": 34137,
    "\u0120Thy": 53177,
    "\u00d0\u00be\u00d1\u013a": 39116,
    "\u00d1\u0123\u00d0\u00ba\u00d0\u00b8\u00d0\u00b9": 32777,
    "IMGIMGFAEEZ": 5048,
    "alert": 42758,
    "IMGIMGGACAZ": 6024,
    "\u0120DNS": 50547,
    "IMGIMGIBFCZ": 8156,
    "modules": 39835,
    "fail": 37074,
    "\u0120Loren": 44702,
    "\u0120Wrestling": 51806,
    "\u0120enhancement": 41347,
    "\u0120segments": 30189,
    "IMGIMGDIJZ": 393,
    "loyed": 34342,
    "Wat": 44874,
    "ismiss": 55681,
    "deep": 36673,
    "\u00e1\u0125\u0132\u00e1\u0125\u0142": 64320,
    "reality": 63849,
    "\u0120float": 28147,
    "\u0120ng\u00c6\u00b0\u00e1\u00bb\u013fi": 58343,
    "\u0120bad": 18216,
    "\u0120equival": 23495,
    "\u0120Isles": 62624,
    "<reserved13051>": 13055,
    "\u0120grandfather": 32262,
    "\u0120unlawful": 44890,
    "\u0120impatient": 51238,
    "<reserved15993>": 15997,
    "<reserved12235>": 12239,
    "izard": 28712,
    "\u0120Morrison": 40401,
    "\u0120Krishna": 52566,
    "\u0120Griff": 32302,
    "anguard": 42033,
    "\u0120lok": 57584,
    "\u0120involve": 23006,
    "\u0120summons": 57847,
    "\u0120instr": 21899,
    "poly": 37410,
    "\u0120Target": 31633,
    "<reserved10040>": 10044,
    "\u0120whats": 48757,
    "\u0120Hier": 46801,
    "iol": 36022,
    "IMGIMGCCIIZ": 2292,
    "\u00e0\u00b4\u013b": 54360,
    "<reserved13125>": 13129,
    "\u0120binge": 51828,
    "\u0120profes": 58656,
    "\u0120Tang": 45753,
    "\u0120formatting": 52874,
    "\u0120resulted": 25901,
    "\u0120Hartford": 48708,
    "\u0120Real": 23118,
    "\u0120Categories": 40616,
    "<reserved11815>": 11819,
    "dating": 57247,
    "IMGIMGHECAZ": 7424,
    "Bron": 40407,
    "OVER": 47200,
    "\u0120Dise": 28684,
    "Basically": 46984,
    "\u0120THC": 63496,
    "\u0120hesitation": 53727,
    "\u0120drafts": 54357,
    "<reserved10681>": 10685,
    "\u0120coordinates": 35923,
    "IMGIMGEBCFZ": 4129,
    "<reserved13281>": 13285,
    "IMGIMGBCDBZ": 1235,
    "angular": 32536,
    "\u0120empowerment": 47818,
    "Parts": 60468,
    "ETHOD": 43467,
    "\u0120\u00d0\u00b2\u00d0\u00b8": 31425,
    "\u0120substit": 27068,
    "<reserved15830>": 15834,
    "\u0120Lank": 57741,
    "\u0120deriv": 26096,
    "jav": 33951,
    "\u0120Dang": 63212,
    "IMGIMGGFGDZ": 6567,
    "\u0120un": 16819,
    "ugen": 42588,
    "\u0120Workshop": 38501,
    "\u0120icons": 41875,
    "\u0120Donald": 23562,
    "IMGIMGCAHHZ": 2081,
    "\u0120theaters": 40108,
    "\u0120arrow": 36278,
    "\u0120Tol": 37401,
    "<reserved15617>": 15621,
    "\u0120succeed": 24039,
    "<reserved14263>": 14267,
    "\u0120FE": 36476,
    "\u0120pren": 48552,
    "\u0120Especially": 30630,
    "IMGIMGGGBFZ": 6619,
    "IMGIMGHDCBZ": 7325,
    "\u0120Pune": 61232,
    "IMGIMGCEAIZ": 2412,
    "union": 39257,
    "\u0120airs": 59895,
    "Crit": 35755,
    "IMGIMGCDJDZ": 2397,
    "IMGIMGBJEGZ": 1950,
    "\u0120swept": 37338,
    "chap": 60770,
    "privile": 64449,
    "IMGIMGGFGIZ": 6572,
    "\u0120Ah": 23772,
    "istry": 19908,
    "\u0120capsule": 48604,
    "ce": 16718,
    "\u0120newborn": 40868,
    "\u0120": 16604,
    "\u0120Signs": 48453,
    "<reserved09489>": 9493,
    "\u0120\u0120": 16650,
    "Abstract": 24274,
    "\u0120pizz": 63801,
    "remote": 46917,
    "\u0120Gy": 36334,
    "kb": 49687,
    "\u0120Tickets": 37462,
    "IMGIMGEBFBZ": 4155,
    "\u0120busiest": 58848,
    "\u0120\u00c3\u00bcber": 23606,
    "\u0120determine": 21349,
    "\u0120cuisine": 40291,
    "aye": 50394,
    "\u00e0\u00b8\u00b2\u00e0\u00b8": 23438,
    "\u00d0\u00be\u00d0\u00bc\u00d1\u0125": 34847,
    "<reserved12083>": 12087,
    "\u0120escalation": 60331,
    "egg": 51551,
    "IMGIMGFJDIZ": 5942,
    "\u00e9\u00ab\u013a": 34991,
    "\u0120coworkers": 51923,
    "\u0120injuries": 24707,
    "IMGIMGEABCZ": 4016,
    "partition": 59902,
    "\u0120poop": 52805,
    "\u0120os": 25667,
    "\u0120comprehens": 23635,
    "reditation": 41270,
    "ibt": 30368,
    "\u0120Royals": 56312,
    "IMGIMGGEEDZ": 6447,
    "tenham": 42044,
    "\u0120Mao": 49363,
    "<reserved16180>": 16184,
    "g": 16454,
    "\u0120Retrieved": 25860,
    "\u0120inhibition": 38455,
    "IMGIMGEIDDZ": 4837,
    "IMGIMGCFAZ": 254,
    "\u0120WTF": 54892,
    "\u0120Princeton": 41958,
    "IMGIMGBBJAZ": 1194,
    "<reserved09277>": 9281,
    "Coord": 47717,
    "\u0120bright": 22906,
    "\u0120Cable": 44695,
    "Validator": 51724,
    "\u0120opposition": 24746,
    "\u00e1\u0122\u00ae": 63358,
    "vasive": 39609,
    "USS": 56913,
    "ildren": 20822,
    "\u0120konnten": 65355,
    "ullivan": 35036,
    "IMGIMGGBGHZ": 6171,
    "xy": 21107,
    "\u0120\u00d0\u00bd\u00d0\u00b8": 55315,
    "\u0120Loan": 39838,
    "\u0120changed": 20152,
    "\u0120physicians": 32001,
    "\u0120turnover": 39483,
    "Kh": 47642,
    "\u0120nej": 40678,
    "\u0120upright": 44554,
    "\u0120mitigate": 41847,
    "\u0120massacre": 46596,
    "\u0120k\u00c3\u00a4": 65506,
    "IMGIMGHEHFZ": 7479,
    "<reserved12069>": 12073,
    "\u0120\u00d0\u00bd": 19042,
    "embre": 40263,
    "IMGIMGFBEDZ": 5147,
    "\u0120labelled": 51750,
    "\u0120exceedingly": 59069,
    "\u0120Ran": 38402,
    "\u0120gases": 40360,
    "\u0120premature": 39781,
    "\u0120learn": 18212,
    "\u0120graded": 55218,
    "\u0120leaves": 22485,
    "\u0120shoots": 41946,
    "disciplinary": 38459,
    "\u0120loaded": 28148,
    "IMGIMGHGFGZ": 7660,
    "elements": 48221,
    "\u0120Our": 19736,
    "\u0120tor": 24368,
    "\u0120adopted": 24934,
    "\u0120reb": 21885,
    "\u0120sagt": 37977,
    "hee": 41291,
    "<reserved16039>": 16043,
    "rino": 53068,
    "unning": 23685,
    "\u0120display": 20064,
    "Viet": 58499,
    "IMGIMGBHAEZ": 1708,
    "\u0120steroids": 52224,
    "\u0120payment": 22526,
    "\u0120looks": 19175,
    "\u00cf\u0123": 21735,
    "IMGIMGFAHAZ": 5074,
    "<reserved13230>": 13234,
    "upa": 54633,
    "HAL": 60494,
    "sin": 29761,
    "\u0120Must": 28809,
    "<reserved11478>": 11482,
    "jquery": 48946,
    "\u0120contestants": 52698,
    "<reserved12985>": 12989,
    "IMGIMGGHEIZ": 6752,
    "IMGIMGDZ": 7,
    "IMGIMGBHFCZ": 1756,
    "framework": 35506,
    "agar": 39369,
    "\u0120char": 17401,
    "enter": 23857,
    "Mus": 26895,
    "\u0120bicy": 32657,
    "IMGIMGHHADZ": 7707,
    "Trust": 42716,
    "unnel": 46000,
    "versible": 57358,
    "<reserved13211>": 13215,
    "IMGIMGHHEHZ": 7751,
    "debted": 56886,
    "\u00d9\u012a\u00db\u012e": 45826,
    "\u0120remind": 21205,
    "\u0120cognition": 58903,
    "proc": 42137,
    "pherd": 38275,
    "<reserved15790>": 15794,
    "<reserved12269>": 12273,
    "IMGIMGBHEFZ": 1749,
    "\u0120haben": 27231,
    "\u0120camping": 36254,
    "\u0120guaranteed": 30025,
    "\u0120Prices": 46436,
    "IMGIMGBIDEZ": 1838,
    "\u0120revisions": 49390,
    "been": 54096,
    "IMGIMGCCJIZ": 2302,
    "Kr": 49100,
    "\u0120Jenna": 62468,
    "\u0120exceeds": 42192,
    "IMGIMGDJIDZ": 3987,
    "<reserved11297>": 11301,
    "\u0120Virgin": 22230,
    "amation": 34698,
    "\u0120gesch": 38236,
    "\u0120navig": 62264,
    "vals": 30065,
    "ourses": 37411,
    "\u0120fracture": 42639,
    "MHz": 64548,
    "\u0120reiterated": 50301,
    "IMGIMGGBFDZ": 6157,
    "IMGIMGDFDFZ": 3539,
    "Anonymous": 54384,
    "IMGIMGHAHIZ": 7082,
    "visions": 43919,
    "rough": 17145,
    "\u0120September": 19118,
    "\u0120AS": 24286,
    "IMGIMGBCHHZ": 1281,
    "IMGIMGDDEEZ": 3348,
    "gend": 48773,
    "\u0120Till": 42429,
    "\u0120lions": 51683,
    "<reserved12988>": 12992,
    "\u0120Patrick": 26866,
    "\u0120proof": 23255,
    "\u0120Tat": 34921,
    "\u0120\u00ec\u0140": 36355,
    "<sentinel:460>": 8658,
    "<reserved12287>": 12291,
    "\u0120merge": 37933,
    "\u0120Vegas": 26836,
    "\u0120Admiral": 49158,
    "IMGIMGDDJZ": 343,
    "\u0120p\u00c5\u013b": 23516,
    "IMGIMGFECDZ": 5427,
    "Design": 35119,
    "\u0120spir": 29053,
    "fair": 39466,
    "\u0120delegate": 43146,
    "\u00c3\u00b0": 37724,
    "\u0120shape": 22005,
    "<reserved15979>": 15983,
    "\u0120grade": 23724,
    "\u00e7\u00bd\u00ae": 45996,
    "\u0120\u00c4\u0133\u00e1\u00bb\u013b": 63051,
    "\u0120expires": 54027,
    "\u0120southwestern": 65356,
    "geant": 49940,
    "\u0120Ergebn": 63200,
    "\u0120syndicated": 63528,
    "IMGIMGCAJGZ": 2100,
    "\u0120exploding": 60686,
    "\u00d1\u0123\u00d0\u00bf": 31062,
    "IMGIMGCHAGZ": 2710,
    "<reserved14712>": 14716,
    "\u00e0\u00b1\u012f": 22983,
    "IMGIMGCAGIZ": 2072,
    "\u0120wore": 30192,
    "\u0120drummer": 43637,
    "fus": 59122,
    "sort": 32487,
    "\u00e8\u00be": 37575,
    "\u0120argued": 27641,
    "\u0120hearings": 41382,
    "cked": 24239,
    "mediately": 46122,
    "\u0120sandwiches": 48249,
    "uit": 19552,
    "<reserved13430>": 13434,
    "<reserved09030>": 9034,
    "\u0120entropy": 48743,
    "IMGIMGGIJHZ": 6901,
    "\u0120purely": 32909,
    "\u00c3\u00a9v": 62836,
    "nach": 44984,
    "\u0120ITV": 57368,
    "\u0120appell": 39151,
    "\u0120relaxed": 34035,
    "IMGIMGFHJCZ": 5796,
    "IMGIMGHFFIZ": 7562,
    "\u0120Franc": 51265,
    "\u0120CG": 35955,
    "\u0120path": 19007,
    "\u0120kindergarten": 48403,
    "\u0120reactions": 28603,
    "\u0120stochastic": 55075,
    "\u0120muted": 62754,
    "\u0120debts": 39855,
    "<sentinel:241>": 8439,
    "\u0120AP": 21337,
    "IMGIMGFCAZ": 524,
    "\u00e6\u0143": 26133,
    "\u00c3\u0143": 17525,
    "door": 24376,
    "\u0120Anxiety": 59174,
    "\u0120served": 20920,
    "IMGIMGIEAZ": 844,
    "\u0120blown": 34956,
    "\u0120spheres": 54306,
    "<reserved14297>": 14301,
    "App": 20323,
    "IMGIMGFDDDZ": 5337,
    "\u0120Petro": 56284,
    "\u0120large": 18122,
    "\u0120Dienstag": 59128,
    "ulates": 34053,
    "\u0120Mot": 22566,
    "\u0120aggrav": 42880,
    "\u0120Gun": 30677,
    "ardon": 37945,
    "\u0120evasion": 64636,
    "<reserved15245>": 15249,
    "<reserved15812>": 15816,
    "\u0120encoun": 23164,
    "<sentinel:338>": 8536,
    "\u0120publicly": 27362,
    "\u00e6\u00b0\u00b4": 44604,
    "\u0120Broadcast": 62765,
    "\u0120priced": 35548,
    "ov": 17063,
    "velt": 36588,
    "Seven": 46116,
    "\u0120GN": 41201,
    "<reserved11635>": 11639,
    "\u0120Leg": 21404,
    "\u0120processing": 22402,
    "\u0120w\u00c3\u00a4re": 52894,
    "\u0120albums": 29559,
    "\u0120Chr": 56870,
    "\u0120OVER": 51842,
    "<reserved09660>": 9664,
    "ide": 16870,
    "\u0120Editorial": 56243,
    "charAt": 60863,
    "zin": 47702,
    "IMGIMGBAIBZ": 1085,
    "\u00d1\u0125\u00d0\u00b1\u00d0\u00bb\u00d0\u00b8": 55553,
    "ICAgICAg": 34626,
    "IMGIMGDECZ": 346,
    "\u0120jealousy": 54018,
    "IMGIMGCFHAZ": 2574,
    "IMGIMGEDIBZ": 4385,
    "\u0120erect": 36449,
    "Ste": 21755,
    "\u0120ESPN": 35483,
    "\u00e0\u00a7\u00a7": 56172,
    "olute": 19691,
    "\u0120preceded": 42582,
    "\u0120Wells": 34350,
    "ich": 16863,
    "\u0120\u00d0\u013f": 26741,
    "\u0120attempting": 29262,
    "\u0120\u00d0\u00b1\u00d1\u0125\u00d0\u00b4": 59270,
    "<reserved10473>": 10477,
    "Salt": 57623,
    "IMGIMGDFFJZ": 3563,
    "\u0120k\u00c3\u00b6nnen": 34207,
    "\u0120consortium": 51773,
    "IMGIMGGGHEZ": 6678,
    "IMGIMGCIBCZ": 2816,
    "ollar": 40307,
    "IMGIMGFIEAZ": 5844,
    "IMGIMGDHFFZ": 3759,
    "ou": 16663,
    "Kelly": 51418,
    "gene": 50559,
    "<reserved15569>": 15573,
    "\u0120one": 16917,
    "ivating": 48262,
    "\u0120darauf": 52318,
    "\u0120redund": 38461,
    "Lev": 53229,
    "\u0120Slim": 59828,
    "\u0120Pediatric": 60424,
    "<reserved15081>": 15085,
    "<reserved10898>": 10902,
    "\u0120thin": 24737,
    "IMGIMGBFFZ": 159,
    "IMGIMGFHGAZ": 5764,
    "\u0120presentations": 34299,
    "zeta": 36400,
    "ellt": 43158,
    "\u0120Noise": 58350,
    "move": 32596,
    "IMGIMGDBFFZ": 3159,
    "arr": 19504,
    "\u0120surgeon": 36933,
    "\u0120predominant": 60750,
    "\u0120\u00c3\u00a8": 27811,
    "liest": 29739,
    "\u0120Mongolia": 61646,
    "<reserved09683>": 9687,
    "\u0120forgiveness": 39398,
    "\u0120novice": 58839,
    "IMGIMGDBFIZ": 3162,
    "\u0120Advisors": 39400,
    "\u0120abolition": 57752,
    "<reserved16248>": 16252,
    "\u0120recharge": 53254,
    "\u0120value": 18020,
    "<reserved15682>": 15686,
    "\u0120delayed": 30914,
    "imir": 35556,
    "IMGIMGEAEFZ": 4049,
    "\u0120\u00f0\u0141\u013a": 23686,
    "\u0120criteria": 25145,
    "\u0120dele": 44938,
    "\u0120\u00e0\u00a6\u0137": 37881,
    "\u0120story": 17971,
    "\u0120outings": 65447,
    "herical": 47531,
    "\u0120echoed": 49289,
    "<reserved10506>": 10510,
    "total": 31328,
    "\u00e0\u00b1\u0129": 39568,
    "IMGIMGBHEGZ": 1750,
    "\u0120rib": 28675,
    "\u00e7\u00b9": 59985,
    "<reserved12395>": 12399,
    "ANA": 48665,
    "IMGIMGBHJCZ": 1796,
    "Gen": 27498,
    "STR": 29244,
    "\u0120Perm": 31311,
    "\u0120coward": 49046,
    "\u00e3\u0125\u0140": 33318,
    "<reserved14147>": 14151,
    "IMGIMGGBGJZ": 6173,
    "\u0120spanning": 45945,
    "IMGIMGDAFFZ": 3059,
    "<reserved09100>": 9104,
    "reath": 43865,
    "IMGIMGCCCDZ": 2227,
    "Courtesy": 54463,
    "\u0120hypnot": 55466,
    "\u0120jer": 31242,
    "voir": 50999,
    "performed": 56937,
    "\u0120LIB": 62216,
    "<reserved11069>": 11073,
    "emo": 44272,
    "\u00c3\u00a7\u00c3\u00a3o": 27854,
    "\u0120following": 18211,
    "rees": 21757,
    "\u0120Undergraduate": 65456,
    "Password": 40629,
    "\u0120glanced": 41357,
    "<reserved15009>": 15013,
    "id": 16699,
    "\u0120Kum": 57303,
    "<reserved16333>": 16337,
    "He": 17611,
    "rupt": 20185,
    "\u0120interacts": 59168,
    "\u0120lottery": 40822,
    "\u0120Import": 32951,
    "York": 60202,
    "\u0120v\u00c3\u0142": 34565,
    "<reserved08811>": 8815,
    "ldorf": 61947,
    "\u00e0\u00af": 19069,
    "<reserved15136>": 15140,
    "\u0120Sally": 41815,
    "earance": 48009,
    "<reserved09721>": 9725,
    "ogn": 18534,
    "<reserved12831>": 12835,
    "Context": 22533,
    "fits": 26658,
    "\u0120evolved": 31402,
    "kick": 46427,
    "bagai": 59021,
    "\u00ea\u00b5\u0132": 64967,
    "\u0120reduce": 21033,
    "\u0120graph": 21405,
    "IMGIMGFFDCZ": 5536,
    "\u00ce\u00b1\u00ce\u00bd": 40087,
    "gery": 21740,
    "\u0120Container": 56642,
    "IMGIMGEEJFZ": 4499,
    "\u0120NR": 40636,
    "Gem": 64343,
    "<reserved11683>": 11687,
    "IMGIMGFHEFZ": 5749,
    "\u0120haunted": 44872,
    "\u0120S": 16702,
    "\u0120submitted": 25413,
    "ahab": 41497,
    "\u0120efforts": 20849,
    "\u0120Ident": 34164,
    "\u0120albeit": 38999,
    "\u0120tiene": 55364,
    "\u0120adaptive": 40769,
    "<reserved12914>": 12918,
    "\u0120bru": 33690,
    "<reserved16070>": 16074,
    "IMGIMGGBGBZ": 6165,
    "\u00e0\u00ae\u013c": 40708,
    "\u0120Providers": 61663,
    "\u0120Push": 47313,
    "\u0120cybersecurity": 47861,
    "\u0120Original": 36424,
    "ako": 24668,
    "\u0120ACC": 35633,
    "sites": 52654,
    "\u0120essay": 27360,
    "\u0120equitable": 51849,
    "voting": 57823,
    "<reserved13616>": 13620,
    "hani": 52117,
    "\u0120happier": 37752,
    "rosse": 48726,
    "IMGIMGGDFJZ": 6363,
    "<reserved16293>": 16297,
    "CTION": 56851,
    "IMGIMGHCIHZ": 7291,
    "\u0120charismatic": 55662,
    "IMGIMGGGBIZ": 6622,
    "\u0120Sheet": 50357,
    "\u0120vapor": 41244,
    "\u0120crappy": 48977,
    "<reserved09927>": 9931,
    "quit": 40668,
    "\u00d8\u012e": 23364,
    "IMGIMGFBEAZ": 5144,
    "<reserved09499>": 9503,
    "<reserved10899>": 10903,
    "awesome": 62771,
    "\u0120\u00cf\u012e": 60582,
    "Raj": 62278,
    "<reserved12786>": 12790,
    "<reserved14606>": 14610,
    "\u0120PER": 42186,
    "\u0120discouraged": 50486,
    "Creat": 33229,
    "\u0120Accessed": 52417,
    "\u0120Pratt": 54706,
    "\u0120legislature": 38376,
    "\u0120gruesome": 65372,
    "\u0120wat": 20532,
    "IMGIMGGCCDZ": 6227,
    "IMGIMGFEHIZ": 5482,
    "IMGIMGIBCJZ": 8133,
    "\u0120frenzy": 59288,
    "<reserved14094>": 14098,
    "nu": 23792,
    "IMGIMGHGGEZ": 7668,
    "IMGIMGECGZ": 430,
    "\u0120Incorporated": 53494,
    "\u0120schnell": 58974,
    "a\u00c3\u00b1a": 55479,
    "might": 58192,
    "\u00b4\u0122": 64584,
    "\u0120Since": 21123,
    "\u00c3\u0141en": 28571,
    "WP": 51164,
    "\u0120radical": 26883,
    "otonin": 60514,
    "\u0120Rach": 60775,
    "IMGIMGHDCDZ": 7327,
    "cry": 40599,
    "<reserved15725>": 15729,
    "ATCH": 36426,
    "IMGIMGBAHBZ": 1075,
    "Mom": 36783,
    "<reserved13226>": 13230,
    "\u00d1\u0122\u00d0\u00be": 31522,
    "\u0120Melissa": 41707,
    "IMGIMGBFJBZ": 1595,
    "<reserved08908>": 8912,
    "<reserved12962>": 12966,
    "\u0120Fot": 58416,
    "IMGIMGCDFFZ": 2359,
    "\u0120ground": 19453,
    "ift": 18529,
    "\u0120patterns": 24294,
    "\u0120Isn": 35821,
    "Gal": 36959,
    "ierte": 33463,
    "\u0120identical": 29329,
    "<reserved10513>": 10517,
    "NK": 51707,
    "IMGIMGHEAGZ": 7410,
    "\u0120accumulate": 50266,
    "\u0120mas": 26579,
    "\u0120strang": 61503,
    "Rus": 50787,
    "mega": 25810,
    "<reserved16164>": 16168,
    "\u0120fibre": 47463,
    "Ratio": 61640,
    "intendent": 36748,
    "\u0120PV": 44906,
    "IMGIMGDBCFZ": 3129,
    "\u0120optic": 54371,
    "<sentinel:74>": 8272,
    "\u0120Did": 22414,
    "\u00d0\u00be\u00d0\u00b2\u00d0\u00b0": 34534,
    "ffent": 41340,
    "\u0120consulted": 48731,
    "\u0120ate": 31443,
    "\u0120conting": 37088,
    "IMGIMGGJGZ": 700,
    "sg": 43088,
    "\u0120Blessed": 53720,
    "\u0120Liga": 48870,
    "ussia": 33071,
    "\u00ef": 16555,
    "<reserved10830>": 10834,
    "<reserved14567>": 14571,
    "innamon": 48488,
    "<reserved15845>": 15849,
    "lasses": 49563,
    "<reserved10543>": 10547,
    "\u0120rings": 32585,
    "\u0120Traffic": 42250,
    "<reserved13784>": 13788,
    "<reserved16379>": 16383,
    "Originally": 38663,
    "IMGIMGEAHIZ": 4082,
    "\u0120Katz": 58564,
    "igos": 64585,
    "ukh": 64168,
    "\u0120bid": 26164,
    "\u0120attaching": 63989,
    "\u00e3\u0123\u00a6": 21707,
    "IMGIMGFDGFZ": 5369,
    "onomic": 49185,
    "planes": 46703,
    "<reserved14685>": 14689,
    "\u0120Nord": 29590,
    "visible": 37837,
    "<sentinel:307>": 8505,
    "\u0120learnt": 39297,
    "\u0120touched": 29321,
    "dup": 49463,
    "\u0120Congress": 20931,
    "\u0120archaeology": 65014,
    "\u0120stolen": 29161,
    "\u00e4\u00bc": 26262,
    "\u0120diffraction": 56504,
    "\u0120tariffs": 40658,
    "<reserved10053>": 10057,
    "<reserved13132>": 13136,
    "Query": 24357,
    "\u0120grasp": 34866,
    "\u0120Identity": 43677,
    "\u0120CM": 32390,
    "kle": 33103,
    "atchewan": 50801,
    "\u0141": 16637,
    "adi": 26361,
    "\u0120reasoning": 32582,
    "drive": 42310,
    "\u0120banners": 55069,
    "IMGIMGCGBGZ": 2620,
    "<reserved11395>": 11399,
    "\u00c4\u0133": 37247,
    "\u0120abruptly": 49733,
    "\u0120Maximum": 56128,
    "\u0120spl": 21090,
    "<reserved10725>": 10729,
    "owl": 43152,
    "soul": 62855,
    "\u00e3\u0124\u00a4": 24353,
    "\u0120penalties": 34116,
    "bell": 22902,
    "My": 18971,
    "\u0120throttle": 56253,
    "\u0120disconnect": 46037,
    "\u0120Cash": 33611,
    "ogo": 37292,
    "ender": 18969,
    "riages": 36743,
    "\u0120autistic": 53943,
    "<reserved16009>": 16013,
    "Ther": 54998,
    "\u0120Gad": 50904,
    "\u0120\u00d0\u00be": 19551,
    "oustic": 32295,
    "IMGIMGEFEHZ": 4551,
    "\u0120terribly": 40173,
    "iencies": 37643,
    "\u0120EF": 48735,
    "\u0120Empty": 62218,
    "\u0120discs": 48952,
    "<reserved09948>": 9952,
    "\u0120absolute": 20267,
    "Background": 36300,
    "\u0120mushrooms": 48226,
    "IMGIMGFIIEZ": 5888,
    "\u0120alongside": 25417,
    "\u0120refr": 34681,
    "<reserved10251>": 10255,
    "\u0120reconstruction": 37528,
    "\u0120Yard": 50867,
    "\u0120Yorkers": 64815,
    "\u0120athletes": 28360,
    "IMGIMGEFGZ": 460,
    "\u0120\u00ef\u00bf\u00bd": 34979,
    "shift": 34303,
    "\u0120offers": 19933,
    "<reserved11893>": 11897,
    "toggle": 44594,
    "\u0120Mast": 60849,
    "<reserved11608>": 11612,
    "\u0120Zac": 64053,
    "hunt": 64488,
    "Celebr": 46953,
    "\u0120reclaim": 52238,
    "\u00e3\u0124\u012d": 20744,
    "\u0120bullets": 40969,
    "\u0120association": 24426,
    "ucci": 40335,
    "IMGIMGFDIJZ": 5393,
    "<reserved11007>": 11011,
    "\u0120Phi": 62604,
    "<reserved13570>": 13574,
    "izo": 50950,
    "\u0120attendant": 52172,
    "means": 60678,
    "\u0120Tay": 47758,
    "IMGIMGFBFHZ": 5161,
    "\u0120paste": 38137,
    "IMGIMGGFGGZ": 6570,
    "\u0120Hosp": 40236,
    "\u0120harmless": 47718,
    "IMGIMGDAJHZ": 3101,
    "\u0120dish": 27500,
    "\u0120knives": 47914,
    "\u0120prox": 29775,
    "\u0120faithfully": 63007,
    "<reserved14046>": 14050,
    "\u0120Higher": 33846,
    "\u0120elderly": 29930,
    "Notification": 45467,
    "\u0120Devil": 38932,
    "\u0120hangs": 51061,
    "\u0120melodies": 55666,
    "\u0120Cannes": 55864,
    "\u0120Therapeutics": 49842,
    "\u00fb": 16567,
    "ITCH": 59490,
    "ulos": 62103,
    "\u0120nope": 62815,
    "cars": 54814,
    "<reserved13358>": 13362,
    "<reserved09242>": 9246,
    "\u0120Cro": 25965,
    "\u0120rid": 21389,
    "paralleled": 56071,
    "<reserved12657>": 12661,
    "IMGIMGGFEGZ": 6550,
    "\u0120Orioles": 63769,
    "IMGIMGEEFGZ": 4460,
    "istle": 31538,
    "prop": 27819,
    "\u0120warranted": 55751,
    "\u0120Aid": 35046,
    "\u0120fingert": 57196,
    "\u0120tenant": 39513,
    "\u0120Kart": 55471,
    "\u0120consider": 18328,
    "<reserved10464>": 10468,
    "\u0120Mondays": 59898,
    "\u0120Arbe": 44715,
    "ceiver": 40491,
    "IMGIMGDDAFZ": 3309,
    "\u0120Means": 51029,
    "\u0120Ra": 23049,
    "\u0120Green": 20779,
    "cs": 23076,
    "lica": 51494,
    "\u0120lessen": 59916,
    "\u0120as": 16741,
    "\u0120punished": 40534,
    "align": 24342,
    "finding": 63688,
    "\u0120tort": 26506,
    "\u0120bookstore": 54272,
    "\u0120pray": 22824,
    "\u0120lots": 21841,
    "Classic": 59108,
    "<reserved14646>": 14650,
    "\u00d9\u0133": 46754,
    "<reserved14287>": 14291,
    "IMGIMGGJEDZ": 6947,
    "\u00f7": 16563,
    "IMGIMGHGAEZ": 7608,
    "\u0120stitches": 60669,
    "sor": 25270,
    "\u0120hospice": 61494,
    "IMGIMGEDCCZ": 4326,
    "\u0120condo": 52956,
    "\u0120Old": 22411,
    "vars": 47530,
    "<reserved11337>": 11341,
    "raise": 32090,
    "IMGIMGGGFFZ": 6659,
    "<reserved12866>": 12870,
    "<reserved16019>": 16023,
    "games": 42912,
    "\u0120fries": 52147,
    "\u00d0\u00b2\u00d0\u00be\u00d0\u00bb": 61853,
    "IMGIMGBCDJZ": 1243,
    "void": 21395,
    "\u0120\u00d0\u00b2\u00d1\u012d": 32543,
    "<reserved15587>": 15591,
    "rena": 28527,
    "\u0120sketch": 34682,
    "\u0120lone": 30959,
    "\u0120vib": 28891,
    "\u0120basketball": 25772,
    "empor": 40511,
    "<reserved15049>": 15053,
    "IMGIMGJFDZ": 957,
    "apping": 22182,
    "eing": 34978,
    "\u0120assignments": 37595,
    "\u00d0\u00be\u00d1\u0123\u00d1\u0123\u00d0\u00b8": 47880,
    "vertical": 53270,
    "ringes": 63834,
    "<reserved15371>": 15375,
    "IMGIMGCAGDZ": 2067,
    "\u0120commercials": 45519,
    "\u0120Whenever": 42455,
    "<reserved12483>": 12487,
    "<reserved15408>": 15412,
    "Edge": 41584,
    "\u0120Solic": 62400,
    "\u0120ret": 18236,
    "\u0120yog": 43419,
    "IMGIMGIFZ": 89,
    "matically": 58601,
    "confirm": 62701,
    "inky": 43519,
    "tin": 46753,
    "\u0120shrugged": 47147,
    "IMGIMGGAJFZ": 6099,
    "Equal": 25320,
    "\u0120\u00d7\u0140\u00d7": 27299,
    "IMGIMGHAEDZ": 7047,
    "\u0120willing": 21277,
    "IMGIMGCFCAZ": 2524,
    "\u0120hugely": 42517,
    "\u0120withdrew": 49591,
    "IMGIMGEEJBZ": 4495,
    "<reserved12467>": 12471,
    "<reserved15623>": 15627,
    "grave": 56632,
    "IMGIMGFIFZ": 589,
    "\u0120Worcester": 50744,
    "<reserved12356>": 12360,
    "efined": 62619,
    "illed": 19469,
    "inia": 56109,
    "\u0120thematic": 59065,
    "\u0120con": 16752,
    "November": 31460,
    "\u0120ROS": 52656,
    "\u00e7\u0136\u00a8": 30939,
    "formal": 59277,
    "\u0120Mush": 56759,
    "<reserved10500>": 10504,
    "<reserved09440>": 9444,
    "\u0120diagrams": 48428,
    "\u0120survives": 57636,
    "AME": 25682,
    "\u0120overall": 20562,
    "\u0120erected": 47357,
    "\u0120Gardens": 36603,
    "<reserved09380>": 9384,
    "\u0120Leonard": 36929,
    "n\u00c3\u00a1": 37254,
    "\u0120Officials": 51206,
    "\u0120Testing": 39880,
    "\u0120editorial": 33791,
    "\u0120Katherine": 44635,
    "\u0120newest": 32353,
    "\u0120expire": 48950,
    "IMGIMGDGCGZ": 3630,
    "\u0120Hall": 20742,
    "bj": 57066,
    "\u0120incredible": 24556,
    "Future": 38088,
    "\u0120Fiji": 57695,
    "\u0120digitally": 51718,
    "\u0120trough": 59381,
    "\u0120Drug": 30428,
    "\u0120\u00d1\u0122\u00d0\u00be\u00d0\u00b4": 62894,
    "IMGIMGEDCDZ": 4327,
    "\u00e3\u0125\u0125\u00e3\u0125\u0139": 61261,
    "ATIONS": 41728,
    "\u0120Adults": 50709,
    "\u0120shake": 31877,
    "\u0120rose": 24596,
    "thirds": 41982,
    "IMGIMGFHIBZ": 5785,
    "<reserved10738>": 10742,
    "<reserved08912>": 8916,
    "IMGIMGBAAFZ": 1009,
    "\u0120appropriate": 21286,
    "Girl": 37234,
    "\u0120\u00d0\u00b4\u00d1\u0122\u00d1\u0125\u00d0\u00b3\u00d0\u00b8": 63490,
    "bank": 30412,
    "Fan": 40527,
    "\u00e5\u00a7\u012d": 48829,
    "racks": 53778,
    "rolls": 55106,
    "Abs": 34560,
    "Male": 59359,
    "<reserved11586>": 11590,
    "\u0120pela": 59483,
    "\u0120collision": 35646,
    "\u0120Will": 18724,
    "atory": 19019,
    "\u0120serial": 28741,
    "etically": 38946,
    "Forest": 61209,
    "\u0120guessing": 34925,
    "\u0120Techniques": 58214,
    "\u0120Integration": 49281,
    "<reserved14038>": 14042,
    "<reserved11864>": 11868,
    "\u0120movie": 19539,
    "<reserved10935>": 10939,
    "\u0120FD": 47270,
    "\u0120vomiting": 49833,
    "\u0120fabrics": 51224,
    "ilis": 57253,
    "\u0120opted": 41722,
    "ieties": 63658,
    "\u0120partner": 21264,
    "IMGIMGDABFZ": 3019,
    "\u0120\u00e0\u00ae\u00a4": 45514,
    "\u0120Nolan": 49473,
    "\u0120upload": 28042,
    "\u0120dumped": 44358,
    "\u0120invoice": 56690,
    "IMGIMGBGBJZ": 1623,
    "\u00e2\u0122\u00a6": 17445,
    "<reserved10835>": 10839,
    "\u0120affordable": 26931,
    "\u0120abrupt": 39957,
    "dont": 53093,
    "\u00d1\u0138\u00d1\u0123": 44147,
    "\u0120Although": 21604,
    "\u0120Station": 26664,
    "\u0120Adolf": 59238,
    "working": 31352,
    "\u00d9\u012a\u00d8\u00b1": 25710,
    "\u0120cheated": 50960,
    "IMGIMGCCGHZ": 2271,
    "<reserved12205>": 12209,
    "yet": 43140,
    "\u0120Office": 21146,
    "uku": 45531,
    "Trigger": 56440,
    "\u0120Student": 26246,
    "\u0120complications": 32126,
    "\u0120warfare": 38725,
    "\u0120generate": 24339,
    "Aqu": 56904,
    "unity": 45052,
    "\u0120abide": 51415,
    "<reserved15998>": 16002,
    "\u0120damages": 31313,
    "IMGIMGDDABZ": 3305,
    "\u0120Riverside": 48462,
    "\u0120ana": 45935,
    "\u0120grounds": 27262,
    "\u0120loyalty": 33741,
    "\u0120ants": 54292,
    "<reserved13347>": 13351,
    "July": 30134,
    "IMGIMGBDIZ": 142,
    "<reserved09120>": 9124,
    "\u0120Dir": 47010,
    "\u0120spectrum": 26335,
    "\u0120forwarded": 55920,
    "IMGIMGHAFJZ": 7063,
    "\u0120Nicolas": 49202,
    "\u0120Strom": 60695,
    "lie": 22029,
    "\u0120bulb": 49168,
    "\u0120practitioner": 42601,
    "\u0120steal": 30778,
    "\u0120insurgents": 65324,
    "\u0120cabin": 31571,
    "github": 29956,
    "\u0120ambitious": 33628,
    "prob": 52709,
    "IMGIMGHHECZ": 7746,
    "\u0120epithelial": 49549,
    "\u0120experiential": 64684,
    "\u00d0\u00b0\u00d1\u0124": 22633,
    "assisted": 57993,
    "IMGIMGBCHIZ": 1282,
    "\u0120Mark": 18905,
    "\u0120transmitter": 49440,
    "IMGIMGBDJDZ": 1397,
    "\u0120tweeted": 35848,
    "\u0120Pell": 60198,
    "\u0120preseason": 49476,
    "\u0120automobiles": 59998,
    "\u0120sensor": 26751,
    "\u00e5\u00a4\u013c": 39498,
    "stderr": 54341,
    "\u0120waiting": 21089,
    "\u0120arguments": 24686,
    "IMGIMGEDAFZ": 4309,
    "save": 31199,
    "\u0120Boyle": 58455,
    "powers": 61519,
    "hammer": 46395,
    "eds": 21110,
    "\u0120acronym": 60903,
    "\u0120IM": 28872,
    "\u0120voluntary": 35029,
    "\u0120bargain": 43663,
    "\u0120particular": 18343,
    "Vi": 50343,
    "Tips": 56610,
    "\u0120Silence": 56085,
    "\u0120\u00d1\u0122": 25125,
    "IMGIMGHCEFZ": 7249,
    "IMGIMGCIHCZ": 2876,
    "\u0120HTC": 53634,
    "nation": 60002,
    "\u0120embed": 64231,
    "<reserved14193>": 14197,
    "IMGIMGCDACZ": 2306,
    "\u00e3\u0123\u0126\u00e3\u0123\u0141": 37446,
    "\u0120Gott": 47777,
    "idade": 38048,
    "<reserved14047>": 14051,
    "<reserved14679>": 14683,
    "IMGIMGGDJJZ": 6403,
    "IMGIMGGDDZ": 637,
    "\u0120sql": 42365,
    "\u0120All": 17958,
    "\u0120olig": 39589,
    "Gee": 62360,
    "<reserved09796>": 9800,
    "IMGIMGEABBZ": 4015,
    "\u0120gives": 20067,
    "than": 30606,
    "IMGIMGCBBEZ": 2118,
    "\u0120Louisiana": 31117,
    "<reserved11203>": 11207,
    "\u0120ville": 54913,
    "\u0120\u00d1\u0123\u00d0\u00b2": 31103,
    "\u0120\u00d8\u00b9\u00d9\u0126\u00d8\u00b4\u00d8\u00a7\u00d9\u0128": 65243,
    "Anal": 50132,
    "\u0120Glasgow": 36986,
    "ennial": 34891,
    "illiant": 51852,
    "IMGIMGCGEFZ": 2649,
    "IMGIMGHBHCZ": 7176,
    "<reserved15437>": 15441,
    "\u0120sport": 22454,
    "\u00e3\u0124\u00a2": 25377,
    "\u0120commonly": 25662,
    "odge": 26279,
    "\u0120electrode": 33781,
    "\u0120minus": 39531,
    "\u0120dia": 41761,
    "azers": 58744,
    "IMGIMGHBJHZ": 7201,
    "ropri": 27906,
    "logical": 35531,
    "<reserved09634>": 9638,
    "\u0120pin": 25508,
    "\u0120Takes": 45316,
    "urger": 46505,
    "kem": 48136,
    "IMGIMGEJFJZ": 4963,
    "\u0120canal": 38829,
    "\u0120increment": 50253,
    "Maker": 63001,
    "\u0120oli": 48115,
    "icked": 27249,
    "\u0120dessen": 58558,
    "\u0120Hammer": 46557,
    "\u0120Young": 23561,
    "<reserved09282>": 9286,
    "\u0120relied": 39605,
    "wert": 55683,
    "IMGIMGFEEGZ": 5450,
    "\u0120quantification": 63755,
    "\u0120OCT": 64176,
    "\u0120Agents": 49669,
    "IMGIMGGBJGZ": 6200,
    "IMGIMGHFACZ": 7506,
    "\u0120wizard": 45626,
    "hin": 31811,
    "Cat": 32572,
    "IMGIMGHHHFZ": 7779,
    "\u0120presented": 20905,
    "\u0120expressed": 23078,
    "\u0120Throw": 47354,
    "\u00e8\u00b7\u00af": 41571,
    "\u0120ancestors": 37673,
    "\u0120voluntarily": 46795,
    "\u0120Bir": 37236,
    "<reserved16309>": 16313,
    "<reserved13129>": 13133,
    "IMGIMGCJJAZ": 2994,
    "<reserved09770>": 9774,
    "\u0120WIN": 52722,
    "\u0120passages": 40486,
    "master": 27522,
    "<reserved11825>": 11829,
    "<reserved11398>": 11402,
    "IMGIMGGBBIZ": 6122,
    "\u0120liner": 53427,
    "amate": 59241,
    "\u0120Sample": 47710,
    "\u0120relief": 24485,
    "<reserved12377>": 12381,
    "\u0120shaking": 36649,
    "ulas": 39417,
    "\u0120Flowers": 51080,
    "iano": 23661,
    "\u00e0\u00a6\u00bc": 32062,
    "IMGIMGEAHDZ": 4077,
    "IMGIMGJGFZ": 969,
    "\u00d8\u00b1\u00d8\u00af": 41456,
    "\u0120Fucking": 53665,
    "\u0120Tran": 60961,
    "Despite": 27631,
    "ourcing": 39585,
    "IMGIMGCAIHZ": 2091,
    "\u0120info": 22618,
    "Brien": 40765,
    "\u0120Because": 20919,
    "\u0120concluded": 27392,
    "algia": 41469,
    "IMGIMGEIFCZ": 4856,
    "\u0120Diabetes": 43222,
    "\u0120FS": 47617,
    "metal": 46528,
    "\u0120Helen": 34699,
    "Cloud": 34920,
    "<reserved09148>": 9152,
    "aeda": 39341,
    "\u0120Form": 21799,
    "\u0120loneliness": 50075,
    "Di": 28768,
    "\u0120sew": 42238,
    "\u00c3\u00a1m": 31840,
    "\u00e4\u00ba\u0137": 62782,
    "\u0120Ich": 38646,
    "IMGIMGHEEIZ": 7452,
    "IMGIMGDEBZ": 345,
    "\u0120IVF": 62813,
    "<reserved08956>": 8960,
    "coffee": 63953,
    "IMGIMGFDIFZ": 5389,
    "\u00ce\u00b6": 50112,
    "IMGIMGEEIFZ": 4489,
    "ucid": 49973,
    "\u0120corrid": 36029,
    "\u0120grim": 39497,
    "foreach": 33407,
    "IMGIMGGFEAZ": 6544,
    "\u0120Venice": 39995,
    "heavy": 50713,
    "\u0120airlines": 40024,
    "\u0120free": 17953,
    "electric": 43313,
    "\u00e1\u00bb\u0141": 47769,
    "\u0120Kentucky": 29039,
    "\u00d0\u00b0\u00d1\u0123": 27142,
    "\u0120tracked": 41715,
    "IMGIMGHIIGZ": 7890,
    "IMGIMGDGJJZ": 3703,
    "\u0120traded": 25028,
    "\u0120Coral": 58040,
    "\u00e4\u00ba\u00ac": 44957,
    "twitter": 28760,
    "\u00e3\u0124\u00b2": 55445,
    "trl": 43317,
    "<reserved10679>": 10683,
    "\u0120Tracy": 46412,
    "\u0120EU": 21949,
    "\u0120exch": 26966,
    "\u0120shelf": 34778,
    "\u0120wives": 39640,
    "<reserved09479>": 9483,
    "\u0120subtle": 30822,
    "\u0120Hancock": 54086,
    "\u0120synopsis": 64495,
    "\u0120Move": 28644,
    "<sentinel:465>": 8663,
    "\u0120veggies": 58575,
    "\u0120bits": 28245,
    "\u0120efficiently": 32936,
    "\u0120Ratio": 57200,
    "\u0120progressed": 46450,
    "\u0120hating": 52922,
    "\u0120einmal": 47866,
    "Unfortunately": 31567,
    "\u0120infiltr": 47829,
    "\u0120Teach": 52851,
    "\u0120Upper": 36443,
    "IMGIMGHBGHZ": 7171,
    "\u0120hur": 22642,
    "IMGIMGDEIEZ": 3488,
    "\u0120reunited": 56831,
    "\u0120outlining": 59235,
    "\u0120Santos": 49162,
    "<reserved15491>": 15495,
    "<reserved14273>": 14277,
    "<sentinel:229>": 8427,
    "\u0120museum": 24407,
    "\u0120soda": 42445,
    "Joy": 53538,
    "<reserved13489>": 13493,
    "\u0120couldn": 19816,
    "ustr": 20340,
    "\u00d1\u0122\u00d0\u00be\u00d0\u00bc": 46356,
    "<reserved12032>": 12036,
    "Iran": 41506,
    "\u0120ruler": 44149,
    "IBLE": 53095,
    "\u0120las": 21862,
    "<reserved09329>": 9333,
    "perty": 21029,
    "<reserved13393>": 13397,
    "\u0120administer": 39890,
    "Fix": 47367,
    "\u0120convenient": 27699,
    "\u0120Marilyn": 51656,
    "Pri": 56884,
    "\u0120polyg": 64536,
    "iane": 35215,
    "IMGIMGEEAAZ": 4404,
    "ylie": 50257,
    "\u0120recurring": 43653,
    "\u0120Laun": 43627,
    "\u0120Featuring": 59853,
    "\u0120tiles": 43841,
    "\u0120guiding": 40871,
    "asks": 22359,
    "\u0120Johns": 41762,
    "ricane": 28907,
    "action": 18574,
    "verett": 53424,
    "\u0120typh": 63073,
    "<reserved15448>": 15452,
    "<reserved10673>": 10677,
    "<reserved10766>": 10770,
    "\u0120fired": 25937,
    "\u0120Nissan": 44426,
    "\u0120swipe": 58733,
    "\u0120ALSO": 57356,
    "odes": 19919,
    "\u0120sorry": 22331,
    "bold": 31436,
    "\u0120quality": 18950,
    "\u0120rele": 18390,
    "\u0120transaction": 24241,
    "\u0120bol": 29971,
    "\u00c6\u00a1": 40676,
    "ellschaft": 44665,
    "lesh": 27730,
    "clud": 17122,
    "\u0120catalogue": 45939,
    "\u0120\u00d0\u00be\u00d0\u00b1\u00d1\u0122\u00d0\u00b0\u00d0\u00b7": 62712,
    "<reserved15827>": 15831,
    "Will": 23690,
    "\u0120rebuild": 37963,
    "<reserved09151>": 9155,
    "<reserved12619>": 12623,
    "AYS": 41067,
    "Series": 38825,
    "pur": 29926,
    "IMGIMGDCJZ": 333,
    "okes": 21488,
    "Econom": 52307,
    "\u0120brew": 37404,
    "IMGIMGEECHZ": 4431,
    "\u0120scarf": 61577,
    "IMGIMGDHGEZ": 3768,
    "\u0120bolt": 44742,
    "\u0120gift": 23103,
    "\u0120trafficking": 36494,
    "isons": 28386,
    "\u0120attain": 35908,
    "intendo": 30679,
    "\u0120Kol": 37031,
    "IMGIMGBDIGZ": 1390,
    "\u0120stagger": 44576,
    "IMGIMGECEGZ": 4250,
    "\u0120Street": 20076,
    "\u0120Dodge": 48023,
    "liches": 63172,
    "IMGIMGBBHGZ": 1180,
    "\u0120bases": 31719,
    "lose": 18100,
    "\u0120Parte": 64643,
    "icone": 55139,
    "IMGIMGECBCZ": 4216,
    "cipe": 55532,
    "\u0120Federation": 30994,
    "poor": 52824,
    "<reserved08922>": 8926,
    "\u0120winter": 22692,
    "\u0120Satan": 35964,
    "\u0120enlightenment": 59301,
    "Cos": 46488,
    "\u0120dial": 22571,
    "Service": 23024,
    "\u0120coherent": 42519,
    "\u0120sem": 19878,
    "jd": 43803,
    "\u0120etc": 19104,
    "\u0120Yep": 36733,
    "\u00c3\u00a9p": 53208,
    "<reserved13244>": 13248,
    "\u0120rolling": 28200,
    "\u0120supplemented": 51019,
    "Su": 27575,
    "<reserved13869>": 13873,
    "ainment": 65366,
    "est": 16765,
    "commons": 52688,
    "\u0120Commun": 19805,
    "tra": 20423,
    "\u0120lob": 27003,
    "leges": 43770,
    "\u0120Peoples": 54184,
    "IMGIMGFBDBZ": 5135,
    "bart": 48112,
    "<reserved13550>": 13554,
    "<sentinel:319>": 8517,
    "\u0120describes": 25684,
    "chant": 32829,
    "ents": 16988,
    "\u0120knight": 44903,
    "utations": 54789,
    "\u0120deceptive": 63043,
    "\u0120Query": 50839,
    "<reserved09382>": 9386,
    "\u0120pursued": 40182,
    "\u0120clearer": 42884,
    "IMGIMGHBGCZ": 7166,
    "\u0120Gina": 58790,
    "\u0120upon": 19028,
    "\u00d0\u013d": 36128,
    "\u0120printer": 37526,
    "<reserved10613>": 10617,
    "\u0120negoti": 23543,
    "\u0120absorb": 35675,
    "opp": 32752,
    "\u0120privileges": 43358,
    "IMGIMGCGDGZ": 2640,
    "\u0120tourist": 30703,
    "\u0120Heritage": 30978,
    "\u0120Crow": 33315,
    "erns": 46384,
    "\u0120scen": 20880,
    "\u0120detailed": 23435,
    "ARI": 51609,
    "\u0120speech": 21992,
    "\u0120charm": 35249,
    "\u0120Nicola": 56460,
    "IMGIMGHGCHZ": 7631,
    "Cle": 28135,
    "messages": 48438,
    "\u0120bottled": 57282,
    "<reserved11740>": 11744,
    "\u0120Karn": 48048,
    "Creator": 62681,
    "\u0120trainees": 63376,
    "\u0120HTTP": 40808,
    "described": 54928,
    "\u0120toe": 38898,
    "NULL": 36250,
    "\u0120throughput": 58490,
    "\u0120glands": 57753,
    "\u0120Knoxville": 63587,
    "quiry": 28422,
    "ography": 20147,
    "\u0120consciousness": 29628,
    "<reserved12512>": 12516,
    "\u0120hack": 31303,
    "assic": 51824,
    "You": 18001,
    "LOG": 33551,
    "\u0120battery": 24220,
    "\u0120wonders": 36675,
    "\u0120Northeast": 42964,
    "IMGIMGEIHCZ": 4876,
    "\u0120v\u00c3\u00bd": 33366,
    "\u0120integrated": 25119,
    "\u00e5\u00ae\u013c": 33483,
    "tie": 55815,
    "Live": 33900,
    "<reserved15021>": 15025,
    "IMGIMGFCIDZ": 5287,
    "OVID": 24038,
    "\u0120textures": 49538,
    "\u00d5\u00a5\u00d6\u0122\u00d5\u00a8": 61322,
    "\u0120signing": 27636,
    "\u0120See": 21125,
    "aque": 33826,
    "\u0120Baptist": 33009,
    "stehen": 61105,
    "IMGIMGCIGZ": 290,
    "IMGIMGEBBDZ": 4117,
    "\u0120overd": 33821,
    "ductive": 32597,
    "\u0120detained": 39615,
    "directed": 49586,
    "\u0120limits": 24727,
    "\u0120strains": 33597,
    "exc": 50261,
    "egas": 26472,
    "kowski": 56947,
    "\u0120obscene": 65284,
    "IMGIMGEBDGZ": 4140,
    "Net": 24555,
    "<reserved11150>": 11154,
    "\u0120wheat": 35395,
    "\u0120Exec": 45277,
    "construction": 31492,
    "IMGIMGBJJAZ": 1994,
    "Num": 31408,
    "<reserved14305>": 14309,
    "Mask": 42847,
    "\u0120gadgets": 53099,
    "IMGIMGFGEIZ": 5652,
    "Data": 19862,
    "\u0120license": 23949,
    "\u00c3\u00bdch": 27118,
    "\u0120begging": 46666,
    "Speaker": 60097,
    "\u0120t\u00c3\u00a4": 63259,
    "Res": 18879,
    "\u00c3\u00a4ren": 54059,
    "IMGIMGBHBGZ": 1720,
    "\u00d5\u00b6\u00d5\u00a5\u00d6\u0122\u00d5\u00ab": 55056,
    "IMGIMGDJDBZ": 3935,
    "<reserved09401>": 9405,
    "Alignment": 57086,
    "\u0120heterogeneity": 59425,
    "orean": 48107,
    "\u0120responsibilities": 29393,
    "IMGIMGHCGJZ": 7273,
    "<reserved12551>": 12555,
    "initely": 28026,
    "\u0120PBS": 40326,
    "\u0120antenna": 36818,
    "German": 41026,
    "\u0120isinstance": 55222,
    "\u0120Tales": 44423,
    "\u0120dancers": 41922,
    "romy": 64934,
    "\u0120breat": 21272,
    "rile": 55873,
    "God": 26499,
    "\u00e3\u0124\u00bb": 43111,
    "\u00e7\u0123": 47733,
    "\u0120relics": 64560,
    "\u0120friction": 42119,
    "\u0120sealing": 52119,
    "Time": 20743,
    "lique": 48118,
    "\u00e7\u012d": 55130,
    "IMGIMGBAGFZ": 1069,
    "<reserved13299>": 13303,
    "ite": 16943,
    "\u0120animations": 50445,
    "\u0120seem": 17672,
    "\u0120h\u00c3\u00a4tte": 59694,
    "\u0120profoundly": 50576,
    "\u00e2\u0138": 32250,
    "\u0120CN": 45949,
    "amil": 26486,
    "\u0120journey": 21961,
    "IMGIMGECHZ": 431,
    "<reserved11501>": 11505,
    "\u0120lanes": 37222,
    "<sentinel:230>": 8428,
    "ividend": 46837,
    "IMGIMGEFEGZ": 4550,
    "\u0120Nationals": 50834,
    "\u0120claims": 21144,
    "ority": 43897,
    "atos": 49010,
    "\u0120Highly": 53652,
    "\u0120convertible": 56622,
    "RIST": 50714,
    "PY": 64313,
    "\u0120override": 34786,
    "\u0120macro": 35643,
    "\u0120accelerate": 38917,
    "\u0120ICE": 47951,
    "\u0120Guru": 53998,
    "rich": 22837,
    "kappa": 34388,
    "\u0120resumed": 49032,
    "\u0120Vers": 32711,
    "likely": 54664,
    "ooo": 39179,
    "\u0120stretched": 37923,
    "\u0120networking": 30414,
    "derer": 36111,
    "more": 19502,
    "<reserved12170>": 12174,
    "\u0120ATT": 61776,
    "IMGIMGFDABZ": 5305,
    "\u0120Prof": 20863,
    "IMGIMGCHHAZ": 2774,
    "IMGIMGDIHAZ": 3874,
    "activate": 55700,
    "Cast": 34208,
    "<reserved14506>": 14510,
    "\u0120rubber": 33487,
    "\u0120Doris": 65354,
    "\u0120lethal": 43384,
    "IMGIMGGEAGZ": 6410,
    "\u0120Recogn": 40637,
    "IMGIMGDHHGZ": 3780,
    "\u0120Fran": 28059,
    "\u0120hurdles": 54162,
    "\u0120framing": 50734,
    "\u0120Prime": 24133,
    "\u0120prevailing": 46738,
    "<reserved11604>": 11608,
    "\u0120Cohen": 34625,
    "\u0120opts": 47421,
    "IMGIMGCCIDZ": 2287,
    "\u0120attitudes": 33267,
    "dude": 53199,
    "\u0120sustain": 22154,
    "\u0120whims": 58988,
    "IMGIMGECHIZ": 4282,
    "\u0120rein": 24878,
    "zahl": 62919,
    "IMGIMGDBIHZ": 3191,
    "\u0120kn": 20222,
    "<reserved11126>": 11130,
    "she": 23333,
    "<reserved15131>": 15135,
    "\u0120rough": 22831,
    "Requests": 61287,
    "IMGIMGBIHHZ": 1881,
    "Most": 23741,
    "centre": 64609,
    "\u0120Jen": 30240,
    "Financial": 46366,
    "\u0120End": 23138,
    "\u0120Curtis": 42459,
    "rights": 55886,
    "IMGIMGEEBBZ": 4415,
    "cription": 19798,
    "\u0120Collins": 32098,
    "\u0120Springfield": 44282,
    "\u0120glue": 45034,
    "<reserved12255>": 12259,
    "<reserved11058>": 11062,
    "\u0120dairy": 35356,
    "IMGIMGBGHAZ": 1674,
    "IMGIMGGCGJZ": 6273,
    "\u0120Haw": 23188,
    "\u0120ail": 51598,
    "\u0120IE": 41294,
    "\u0120router": 41135,
    "\u0120process": 17650,
    "\u0120disabled": 29183,
    "IMGIMGFBBZ": 515,
    "esthes": 38926,
    "\u00d5\u00a3": 52837,
    "\u0120Nathan": 34410,
    "\u0120alles": 46783,
    "IMGIMGBECJZ": 1433,
    "\u0120pls": 60813,
    "\u0120Rab": 30453,
    "\u0120quotation": 58066,
    "sector": 52336,
    "\u0120correction": 32263,
    "<reserved16245>": 16249,
    "Arn": 58251,
    "defined": 24071,
    "\u0120breaker": 61202,
    "\u0120sci": 18488,
    "spir": 47176,
    "\u0120frogs": 62985,
    "\u0120period": 18472,
    "IMGIMGIFIZ": 862,
    "OK": 27275,
    "\u0120Collector": 64800,
    "\u0120sevent": 26562,
    "ctions": 17444,
    "\u0120unders": 33606,
    "\u0120Deadline": 58184,
    "\u0120UX": 63898,
    "IMGIMGFBJGZ": 5200,
    "ceral": 57209,
    "\u00e0\u00a4\u00be": 20793,
    "\u0120pa\u00c3\u0143s": 61312,
    "IMGIMGEBGFZ": 4169,
    "\u0120COP": 40853,
    "\u0120Kl": 30979,
    "\u00d8\u00a7\u00d9\u0126\u00d9\u0129": 55857,
    "\u0120personas": 61386,
    "mission": 19693,
    "\u0120boys": 22789,
    "Intern": 28453,
    "igne": 45811,
    "\u0120routing": 45370,
    "goers": 57431,
    "\u0120placing": 31747,
    "moil": 46948,
    "IMGIMGEJEFZ": 4949,
    "IMGIMGHGIAZ": 7684,
    "naissance": 45789,
    "\u0120sum": 18400,
    "<reserved15613>": 15617,
    "\u0120points": 18842,
    "\u0120queen": 33990,
    "\u0120terminology": 45953,
    "IMGIMGCFZ": 29,
    "\u0120representations": 39164,
    "\u0120Holt": 53615,
    "ktor": 47030,
    "<reserved10915>": 10919,
    "\u0120fascination": 53467,
    "\u0120exempl": 32686,
    "repl": 50079,
    "ere": 23378,
    "IMGIMGHGGAZ": 7664,
    "\u0120so": 16859,
    "\u00c5\u00a1": 19317,
    "\u0120theore": 25765,
    "<reserved15560>": 15564,
    "fections": 27594,
    "ospital": 19266,
    "ias": 21253,
    "\u0120Official": 34846,
    "\u0120rebel": 41128,
    "\u0120summar": 31188,
    "<reserved12659>": 12663,
    "bos": 52039,
    "\u0120attentive": 61461,
    "\u0120Peace": 27838,
    "ifact": 48945,
    "\u0120java": 23172,
    "lar\u00c4\u00b1": 60226,
    "IMGIMGBGGIZ": 1672,
    "<reserved15020>": 15024,
    "\u0120photoc": 59147,
    "<reserved09699>": 9703,
    "\u0120confidently": 57932,
    "\u0120Dude": 38412,
    "andre": 62108,
    "IMGIMGGGGEZ": 6668,
    "\u0120rus": 54000,
    "gettable": 48109,
    "task": 31988,
    "\u00e5\u0131\u0133": 58373,
    "<reserved10162>": 10166,
    "\u0120prolific": 47844,
    "\u0120fix": 19625,
    "\u0120aged": 26661,
    "extreme": 58724,
    "\u0120nutritional": 40564,
    "\u0120poet": 30952,
    "\u0120Getty": 34230,
    "IMGIMGFGHZ": 571,
    "<reserved12678>": 12682,
    "<reserved09034>": 9038,
    "IMGIMGCHCEZ": 2728,
    "Bru": 63614,
    "IMGIMGGIHGZ": 6880,
    "\u0120co": 17055,
    "\u0120Shark": 57763,
    "IMGIMGIAFIZ": 8062,
    "evin": 24169,
    "girl": 29949,
    "\u0120Jubilee": 62465,
    "itals": 24335,
    "relevant": 33497,
    "IMGIMGFGCGZ": 5630,
    "\u0120holidays": 29443,
    "<reserved09631>": 9635,
    "tern": 17124,
    "\u0120performances": 26384,
    "\u0120Power": 22496,
    "\u0120AC": 26717,
    "\u0120Licensing": 65505,
    "\u00c3\u00bcsse": 54120,
    "\u0120Policies": 54478,
    "Chris": 32251,
    "<reserved13351>": 13355,
    "\u0120anecdotes": 64265,
    "\u0120designed": 20087,
    "\u0120Fro": 39336,
    "taining": 36037,
    "HEAD": 49309,
    "\u0120Fourier": 55434,
    "\u0120distorted": 50338,
    "<sentinel:61>": 8259,
    "IMGIMGCCDAZ": 2234,
    "IMGIMGFAEFZ": 5049,
    "unction": 18164,
    "<reserved13402>": 13406,
    "pun": 45523,
    "IMGIMGDFEZ": 358,
    "today": 49801,
    "\u0120Sundance": 65202,
    "\u0120Jean": 26016,
    "irc": 18135,
    "USINESS": 54827,
    "\u0120Funk": 50077,
    "innie": 63905,
    "BP": 29209,
    "<reserved13981>": 13985,
    "<reserved10841>": 10845,
    "Picker": 56049,
    "\u0120Jun": 23032,
    "\u0120hast": 39766,
    "\u0120Governance": 46612,
    "\u0120Facility": 42789,
    "on": 16645,
    "\u0120vz": 52622,
    "\u0120bankers": 50877,
    "IMGIMGFCAGZ": 5210,
    "includes": 57608,
    "\u0120marginal": 34146,
    "<reserved10665>": 10669,
    "IMGIMGHDDEZ": 7338,
    "IMGIMGBGFBZ": 1655,
    "Hugh": 63315,
    "IMGIMGCIJBZ": 2895,
    "\u0120torso": 61735,
    "\u0120Ang": 19188,
    "Small": 36635,
    "\u0120ruled": 28900,
    "\u0120armies": 44430,
    "chet": 36153,
    "<reserved15530>": 15534,
    "Foreign": 44710,
    "\u0120alleviate": 48156,
    "\u0120govt": 57928,
    "\u00e9\u012e": 50114,
    "<reserved14024>": 14028,
    "<reserved09280>": 9284,
    "\u0120Ack": 59784,
    "notes": 41060,
    "\u0120dpa": 54611,
    "<reserved12679>": 12683,
    "IMGIMGDFEAZ": 3544,
    "IMGIMGDJGZ": 400,
    "\u0120dend": 57593,
    "zial": 38988,
    "<sentinel:316>": 8514,
    "\u0120Andy": 29212,
    "\u0120reset": 32294,
    "<reserved11855>": 11859,
    "<reserved13618>": 13622,
    "pool": 24690,
    "\u0120abandonment": 62026,
    "<reserved14722>": 14726,
    "\u0120clothes": 24612,
    "\u0120Funding": 44871,
    "\u0120remained": 23622,
    "Bitmap": 55716,
    "\u0120priesthood": 63684,
    "dim": 24430,
    "\u0120ch": 16816,
    "\u00e6\u013e\u0141": 41192,
    "NB": 42245,
    "Kit": 41633,
    "\u0120malign": 55861,
    "rack": 52481,
    "\u00e0\u00b6\u00b8": 59674,
    "<reserved09564>": 9568,
    "<reserved10652>": 10656,
    "uttering": 50027,
    "iff": 18837,
    "\u0120Fighter": 49053,
    "IMGIMGEHHAZ": 4774,
    "<reserved13124>": 13128,
    "\u0120\u00d1\u0126": 26404,
    "ascript": 32778,
    "Graphics": 55599,
    "acon": 26328,
    "<reserved16195>": 16199,
    "\u0120Hyundai": 54628,
    "IMGIMGHDJGZ": 7400,
    "<reserved08832>": 8836,
    "\u0120methodological": 64525,
    "<reserved12642>": 12646,
    "\u0120recruiting": 35720,
    "classified": 60836,
    "<reserved11784>": 11788,
    "\u0120poses": 38382,
    "\u0120Meeting": 29648,
    "<reserved12278>": 12282,
    "\u0120coer": 61758,
    "ocal": 20604,
    "<reserved12816>": 12820,
    "IMGIMGBHJHZ": 1801,
    "\u0120entitlement": 53661,
    "\u0120gravel": 47590,
    "<reserved09978>": 9982,
    "email": 28080,
    "rint": 40996,
    "\u0120theological": 46331,
    "IMGIMGHEFGZ": 7460,
    "\u00d1\u012b\u00d0\u00b8": 37271,
    "\u0120Helsinki": 53175,
    "\u0120painters": 61868,
    "slice": 38082,
    "\u0120pains": 43848,
    "IMGIMGFGZ": 60,
    "\u0120rail": 23515,
    "\u0120Canterbury": 54800,
    "\u0120selfish": 35481,
    "<reserved11838>": 11842,
    "\u00c3\u00bd": 19957,
    "<reserved15415>": 15419,
    "<reserved13609>": 13613,
    "\u0120Casa": 56410,
    "\u0120slowdown": 56592,
    "apply": 31917,
    "\u0120chron": 33760,
    "IMGIMGBGHBZ": 1675,
    "tok": 31099,
    "IMGIMGHFEBZ": 7545,
    "\u0120Browns": 45182,
    "IMGIMGFCFFZ": 5259,
    "<sentinel:430>": 8628,
    "\u0120clay": 36876,
    "DC": 27197,
    "\u0120contraction": 50281,
    "\u0120mourning": 52822,
    "uing": 20444,
    "Gr": 20112,
    "\u0120sender": 43690,
    "IMGIMGDJFIZ": 3962,
    "\u0120opposite": 23581,
    "\u0120Cure": 56856,
    "ROOT": 63493,
    "\u0120firstly": 63497,
    "ATED": 33124,
    "iolet": 42607,
    "\u00a6\u00d7": 36124,
    "IMGIMGCGADZ": 2607,
    "Av": 29220,
    "\u0120collector": 40025,
    "illation": 49137,
    "igrated": 56577,
    "MAT": 56721,
    "IMGIMGGIDFZ": 6839,
    "\u0120memorandum": 60398,
    "\u0120pocket": 27781,
    "<reserved13647>": 13651,
    "<reserved14032>": 14036,
    "thia": 44327,
    "Berlin": 58932,
    "articles": 34923,
    "\u0120predictions": 33477,
    "IMGIMGEICFZ": 4829,
    "\u0120Plato": 54681,
    "<reserved13340>": 13344,
    "adors": 47262,
    "Pod": 37746,
    "\u0120centered": 36322,
    "\u0120CD": 21305,
    "\u0120sap": 60956,
    "IMGIMGHGCZ": 766,
    "\u0120woll": 37692,
    "\u0120safer": 33205,
    "\u0120pumping": 44356,
    "<reserved16157>": 16161,
    "\u0120sponsors": 37165,
    "\u0120porch": 43046,
    "<reserved14160>": 14164,
    "Creation": 61297,
    "<reserved09760>": 9764,
    "<reserved13734>": 13738,
    "<sentinel:104>": 8302,
    "IMGIMGBCAHZ": 1211,
    "IMGIMGEAEGZ": 4050,
    "<reserved09738>": 9742,
    "<reserved10489>": 10493,
    "<reserved15681>": 15685,
    "\u0120owning": 40619,
    "\u00d1\u0131": 18026,
    "<reserved11782>": 11786,
    "\u00d1\u0128\u00d1\u012e": 48433,
    "<reserved13272>": 13276,
    "bat": 27206,
    "\u0120nib": 62486,
    "\u0120conflicts": 31919,
    "\u0120anten": 32472,
    "\u0120MI": 34186,
    "\u0120Fuj": 51049,
    "acha": 46867,
    "cipline": 53789,
    "\u0120decent": 23831,
    "\u0120Phoenix": 30486,
    "\u0120ordained": 55702,
    "\u00d1\u0125\u00d1\u012a": 57451,
    "\u0120private": 19454,
    "<reserved12224>": 12228,
    "\u0120Ft": 61897,
    "\u0120Apr": 18733,
    "IMGIMGHAEIZ": 7052,
    "\u0120suffered": 25196,
    "\u0120Brussels": 38187,
    "\u0120mechanic": 41773,
    "IMGIMGHHGCZ": 7766,
    "\u00e3\u0123\u00af": 21249,
    "\u0120COL": 40936,
    "IMGIMGCEZ": 28,
    "<reserved15922>": 15926,
    "IMGIMGGBDFZ": 6139,
    "\u0120Vice": 26183,
    "\u0120approaching": 32448,
    "\u0120gymnastics": 63647,
    "\u0120cooperating": 64852,
    "<reserved11850>": 11854,
    "IMGIMGFGIGZ": 5690,
    "IMGIMGGJEHZ": 6951,
    "AAAAAAAAAAAAAAAA": 34547,
    "\u0120Titans": 46342,
    "<reserved13801>": 13805,
    "immung": 64642,
    "STAT": 37237,
    "\u0120specification": 40435,
    "GTH": 55918,
    "IMGIMGBHHIZ": 1782,
    "\u0120next": 17718,
    "kim": 48310,
    "\u0120Na": 24876,
    "IMGIMGHGDZ": 767,
    "peace": 44991,
    "\u0120Seine": 61930,
    "iesel": 62883,
    "ags": 18780,
    "\u0120const": 17794,
    "\u0120excurs": 47273,
    "IMGIMGCDEZ": 238,
    "IMGIMGGCDEZ": 6238,
    "IMGIMGGHGEZ": 6768,
    "RAM": 43172,
    "\u0120disagreement": 49298,
    "\u0120grace": 26710,
    "\u0120winners": 28846,
    "<reserved10877>": 10881,
    "<reserved10518>": 10522,
    "\u0120things": 17578,
    "<reserved08767>": 8771,
    "<reserved16265>": 16269,
    "\u0120Sutton": 54533,
    "\u0120Movie": 30357,
    "<reserved11170>": 11174,
    "\u0120TC": 40764,
    "suite": 57405,
    "ibr": 20180,
    "Library": 43255,
    "<reserved11276>": 11280,
    "zeug": 46985,
    "\u0120Iranian": 31843,
    "Modern": 44601,
    "area": 31085,
    "\u0120ab": 16836,
    "reign": 47291,
    "\u0120proofs": 60303,
    "\u0120\u00d8\u00a7\u00d9\u012a": 53669,
    "\u0120volumes": 30788,
    "\u0120Titel": 63597,
    "\u0120python": 38200,
    "give": 41802,
    "\u0120dying": 26691,
    "\u0120Bird": 33376,
    "performance": 40861,
    "Flow": 41733,
    "\u0120\u00e0\u00b4\u00aa": 55555,
    "neutral": 46520,
    "<reserved12778>": 12782,
    "hner": 54266,
    "warning": 49336,
    "\u0120Holl": 29179,
    "IMGIMGDHFGZ": 3760,
    "cky": 60018,
    "\u0120Faust": 64694,
    "\u0120dad": 23266,
    "ths": 34793,
    "stuff": 52271,
    "Terror": 62941,
    "\u0120corrupted": 55121,
    "\u00ac": 16489,
    "\u0120bullpen": 58957,
    "<reserved13206>": 13210,
    "\u0120interests": 22251,
    "ERROR": 31929,
    "happy": 48220,
    "\u0120hamb": 63062,
    "river": 35614,
    "zik": 62061,
    "<sentinel:456>": 8654,
    "\u0120DOE": 63635,
    "\u0120dimension": 29505,
    "IMGIMGHCGZ": 730,
    "<reserved14774>": 14778,
    "sterdam": 35094,
    "\u00e8\u00a6": 27657,
    "rov": 30841,
    "\u0120CC": 27406,
    "\u0120comparisons": 37509,
    "Urban": 59213,
    "\u0120kit": 22121,
    "\u0120Clearly": 41280,
    "IMGIMGBBFFZ": 1159,
    "\u0120Tek": 59172,
    "ODY": 53313,
    "Nev": 65017,
    "<reserved08898>": 8902,
    "ings": 17017,
    "rupp": 32604,
    "\u0120Osborne": 57342,
    "\u0120chatter": 63942,
    "gor": 22052,
    "<reserved10471>": 10475,
    "\u0120excessive": 31972,
    "\u0120contamin": 51233,
    "IMGIMGIBGFZ": 8169,
    "\u0120McGu": 58340,
    "stanbul": 41187,
    "\u0120contextual": 52530,
    "\u0120Nich": 29257,
    "<reserved10281>": 10285,
    "lemma": 42598,
    "<reserved09009>": 9013,
    "brand": 35018,
    "\u0120signifies": 64892,
    "IMGIMGDAFIZ": 3062,
    "\u0120husbands": 48815,
    "\u0120Mr": 18667,
    "\u0120pav": 51135,
    "<reserved16080>": 16084,
    "\u0120sal": 19841,
    "\u0120supporter": 38731,
    "\u0120substance": 27122,
    "\u0120duty": 24282,
    "\u0120han": 32727,
    "<reserved10337>": 10341,
    "Students": 34155,
    "\u00e2\u0122": 16692,
    "\u0120Ay": 31862,
    "\u0120captive": 50448,
    "<reserved09222>": 9226,
    "\u0120ove": 48543,
    "<reserved10887>": 10891,
    "\u0120itself": 19302,
    "voy": 60983,
    "Website": 41950,
    "rox": 28389,
    "acking": 36513,
    "\u0120installations": 43357,
    "Consumer": 47455,
    "<reserved14797>": 14801,
    "RGB": 62731,
    "<reserved12451>": 12455,
    "rested": 50286,
    "\u0120chances": 25791,
    "\u0120slowed": 41319,
    "\u0120circles": 32226,
    "\u0120mirror": 27663,
    "<reserved11540>": 11544,
    "ourage": 25096,
    "<reserved14781>": 14785,
    "ador": 23230,
    "ILL": 25675,
    "arte": 35228,
    "omat": 52095,
    "\u0120Lives": 39191,
    "IMGIMGCEEBZ": 2445,
    "\u0120ship": 21710,
    "\u00d9\u0126\u00d9\u0127": 39970,
    "phyl": 60853,
    "\u0120corrected": 37514,
    "loor": 30627,
    "<reserved12614>": 12618,
    "\u0120survival": 25341,
    "\u0120contrad": 29283,
    "\u0120\u00d0\u00be\u00d1\u0123\u00d1\u0124": 64110,
    "\u0120civil": 20480,
    "\u0120commentator": 55563,
    "<reserved10221>": 10225,
    "IMGIMGGHHFZ": 6779,
    "\u0120weekly": 26226,
    "\u0120arr": 38855,
    "\u0120Info": 39370,
    "\u0120drawing": 25007,
    "\u0120screws": 51473,
    "\u0120Space": 24459,
    "\u00ce\u00b5": 21400,
    "\u0120Third": 28842,
    "umbles": 49551,
    "IMGIMGCHGAZ": 2764,
    "\u0120way": 17210,
    "Twitter": 39696,
    "\u00e3\u0123\u012a": 37017,
    "Jac": 38776,
    "<reserved14224>": 14228,
    "IMGIMGDIHFZ": 3879,
    "\u0120Had": 27258,
    "\u0120morbidity": 60435,
    "IMGIMGFFBGZ": 5520,
    "\u00d1\u0122\u00d0\u00b0\u00d0\u00b6": 65200,
    "IMGIMGCFCBZ": 2525,
    "<reserved12481>": 12485,
    "<reserved15029>": 15033,
    "\u0120exception": 23956,
    "\u0120hill": 27682,
    "meta": 33173,
    "metadata": 38861,
    "\u0120practically": 32581,
    "\u0120compiling": 62508,
    "\u0120offices": 25861,
    "\u0120welcomed": 32106,
    "Back": 23637,
    "<reserved13641>": 13645,
    "\u0120sidewalk": 45043,
    "<reserved12310>": 12314,
    "ij": 18894,
    "\u0120acquisitions": 41401,
    "\u0120kitten": 60025,
    "\u0120Re": 17143,
    "<reserved09828>": 9832,
    "IMGIMGGCBZ": 625,
    "gest": 18628,
    "\u0120Peb": 61083,
    "IMGIMGIAIBZ": 8085,
    "\u0120Holding": 45925,
    "amera": 35494,
    "<reserved13190>": 13194,
    "ance": 16940,
    "atural": 18938,
    "ODE": 30096,
    "\u0120Carroll": 40862,
    "\u0120least": 17965,
    "IMGIMGFFGGZ": 5570,
    "hyde": 50183,
    "\u0120laun": 21767,
    "\u0120Rio": 31841,
    "\u0120Flu": 36199,
    "\u0120bag": 22798,
    "inject": 53953,
    "\u0120dangerously": 60860,
    "\u0120world": 17394,
    "\u00d1\u0128\u00d1\u0138\u00d1\u0139": 55654,
    "<reserved15406>": 15410,
    "IMGIMGDGBJZ": 3623,
    "enders": 25397,
    "\u0120inning": 36534,
    "\u0120\u00d7\u0134\u00d7": 55346,
    "sci": 56094,
    "istan": 20653,
    "<reserved11927>": 11931,
    "IMGIMGEDCGZ": 4330,
    "Sar": 34285,
    "\u0120Ministries": 58351,
    "IMGIMGFJCIZ": 5932,
    "\u00c3\u00bcrlich": 59607,
    "\u0120independently": 31525,
    "\u0120finest": 33921,
    "\u00e0\u00a6\u0124": 46691,
    "\u0120rushed": 33848,
    "IMGIMGBIGIZ": 1872,
    "<reserved08813>": 8817,
    "\u0120dh": 59923,
    "\u0120semantics": 62609,
    "IMGIMGCGFJZ": 2663,
    "IMGIMGFAIBZ": 5085,
    "got": 28278,
    "\u0120libert": 35342,
    "\u0120motivated": 30930,
    "<reserved08949>": 8953,
    "\u00e3\u0124\u012f": 61341,
    "\u0120relent": 40542,
    "\u0120API": 28874,
    "\u0120NY": 22420,
    "<reserved10907>": 10911,
    "\u0120ahead": 20747,
    "IMGIMGECFJZ": 4263,
    "\u0120predicts": 48071,
    "ising": 18084,
    "\u0120\u00d0\u00b0\u00d0\u00b2": 44223,
    "near": 54063,
    "olini": 61861,
    "\u0120birth": 20344,
    "Rick": 46639,
    "\u0120conform": 32735,
    "thouse": 41595,
    "undle": 25748,
    "IMGIMGHEHGZ": 7480,
    "\u0120drawer": 51400,
    "IMGIMGBDAEZ": 1308,
    "\u0120ARE": 33176,
    "<reserved15425>": 15429,
    "\u0120h\u00c3\u00a4": 58053,
    "\u00e5\u00b7\u00a5": 45292,
    "8": 16407,
    "\u0120County": 19044,
    "VO": 42979,
    "IMGIMGHBAHZ": 7111,
    "\u0120empty": 23073,
    "\u0120overwhel": 25483,
    "Marie": 48888,
    "ificant": 34391,
    "<reserved15430>": 15434,
    "\u0120froze": 63095,
    "<reserved12978>": 12982,
    "IMGIMGGIHJZ": 6883,
    "\u0120stint": 49378,
    "<reserved09279>": 9283,
    "<reserved14240>": 14244,
    "atures": 22280,
    "\u0120perceptions": 40957,
    "\u0120Franco": 41180,
    "\u0120awarded": 25011,
    "<reserved12109>": 12113,
    "\u0120crews": 39544,
    "<sentinel:393>": 8591,
    "\u0120rural": 24885,
    "\u0120Oper": 22851,
    "\u00d5\u00ab": 21536,
    "node": 22544,
    "llan": 48923,
    "<reserved10788>": 10792,
    "<reserved12647>": 12651,
    "\u0120of": 16673,
    "\u0120totaling": 57987,
    "\u00c3\u00a4sent": 63103,
    "uke": 28156,
    "<reserved12412>": 12416,
    "IMGIMGDJJHZ": 4001,
    "\u0120inhibiting": 64363,
    "ogen": 21886,
    "\u0120inpatient": 60272,
    "\u0120owed": 42404,
    "IMGIMGGIADZ": 6807,
    "rata": 65145,
    "<reserved15937>": 15941,
    "\u00cf\u0122": 22867,
    "\u0120crocod": 64890,
    "\u00c4\u0139": 35394,
    "onn": 59411,
    "<reserved09999>": 10003,
    "\u0120capture": 25217,
    "\u0120curv": 48893,
    "\u0120helmets": 58165,
    "\u0120Donna": 44094,
    "\u0120stre": 22218,
    "\u0120collecting": 30383,
    "IMGIMGCGFCZ": 2656,
    "<reserved12966>": 12970,
    "\u0120smartphone": 31007,
    "ottes": 54359,
    "ording": 17883,
    "\u0120Painting": 57257,
    "\u0120Geoffrey": 57605,
    "\u0120gou": 60000,
    "elta": 21115,
    "<reserved09769>": 9773,
    "\u0120XL": 47704,
    "\u0120pt": 49590,
    "\u0120electronic": 23510,
    "\u0120Wow": 29811,
    "IMGIMGBFCJZ": 1533,
    "\u0120threads": 33568,
    "<reserved09359>": 9363,
    "\u0120Christmas": 21245,
    "\u0120Nig": 26114,
    "IMGIMGFIGAZ": 5864,
    "\u0120amino": 34226,
    "\u0120havent": 59939,
    "\u0120Napole": 43596,
    "\u0120striking": 29555,
    "\u00e9\u0124": 46681,
    "\u0120undes": 45118,
    "driving": 50073,
    "\u0120Candy": 53834,
    "\u0120God": 18056,
    "\u0120Mall": 32365,
    "\u0120mates": 44834,
    "\u0120victims": 23906,
    "\u0120Rend": 61216,
    "\u0120haven": 20204,
    "<reserved13849>": 13853,
    "<reserved11045>": 11049,
    "<sentinel:388>": 8586,
    "\u0120precaution": 57199,
    "IMGIMGEHHJZ": 4783,
    "\u0120virtue": 35282,
    "ANS": 32285,
    "\u0120Farm": 26391,
    "\u0120Goodman": 52331,
    "\u0120bowls": 53950,
    "\u0120Disk": 54996,
    "Quite": 61492,
    "<reserved12557>": 12561,
    "\u0120required": 19062,
    "\u00ec\u013f\u0126": 35332,
    "ibre": 58540,
    "<reserved11723>": 11727,
    "<reserved11299>": 11303,
    "iqueness": 54835,
    "\u0120cigar": 58334,
    "\u0120mur": 20643,
    "\u0120Maz": 38341,
    "<reserved14648>": 14652,
    "\u0120Rank": 34382,
    "\u0120Unters": 55167,
    "\u0120EBITDA": 54773,
    "IMGIMGGCCEZ": 6228,
    "\u0120mankind": 38656,
    "\u00d0\u013a": 37872,
    "least": 47467,
    "\u0120Savage": 48745,
    "\u0120cane": 52677,
    "<reserved12204>": 12208,
    "\u00ea\u00b2\u012e": 64477,
    "\u0120Governor": 26824,
    "othermal": 54658,
    "omega": 26442,
    "IMGIMGDIAAZ": 3804,
    "IMGIMGHIHBZ": 7875,
    "\u0120Sudan": 36031,
    "\u0120gener": 17515,
    "\u0120negligible": 54074,
    "<reserved11456>": 11460,
    "\u0120knocked": 33625,
    "Adams": 65446,
    "IMGIMGIFJZ": 863,
    "\u0120\u00f0\u0141": 20410,
    "\u0120retailers": 32312,
    "\u0120alternatively": 58387,
    "ARN": 37214,
    "\u0120Entry": 42234,
    "Very": 32749,
    "\u0120Levels": 57926,
    "<sentinel:117>": 8315,
    "peat": 39225,
    "\u0120sacrific": 32603,
    "IMGIMGGAJZ": 613,
    "IMGIMGGDIEZ": 6388,
    "\u0120arrows": 42913,
    "ania": 29862,
    "\u0120Valle": 62517,
    "\u0120bo": 17090,
    "<reserved13938>": 13942,
    "IMGIMGFCAFZ": 5209,
    "<sentinel:412>": 8610,
    "IMGIMGBJIIZ": 1992,
    "jed": 48380,
    "\u0120fiscal": 26540,
    "\u0120backwards": 36178,
    "IMGIMGEAGHZ": 4071,
    "IMGIMGEIHDZ": 4877,
    "case": 19827,
    "olla": 47202,
    "ina": 17713,
    "robe": 42971,
    "\u0120fer": 28406,
    "\u0120flashlight": 64976,
    "<reserved13198>": 13202,
    "\u0120curves": 34734,
    "\u0120Innovative": 62611,
    "\u0120Controller": 47739,
    "IMGIMGGECJZ": 6433,
    "\u0120Austral": 19399,
    "\u0120DP": 45784,
    "aba": 26349,
    "\u0120revel": 30183,
    "IMGIMGDIFCZ": 3856,
    "\u0120\u00d0\u00b2": 18591,
    "OPT": 44081,
    "\u0120klub": 63060,
    "\u0120Partnership": 36163,
    "\u00d1\u0125\u00d1\u0130": 38172,
    "ourney": 21340,
    "Hex": 55021,
    "\u0120crashes": 38998,
    "\u00e3\u0123\u0139\u00e3\u0123\u00a6\u00e3\u0123\u0126\u00e3\u0123\u0141": 65177,
    "\u0120av": 17571,
    "<reserved15494>": 15498,
    "IMGIMGEBGDZ": 4167,
    "\u0120dishon": 43066,
    "\u0120Rew": 45073,
    "<reserved09377>": 9381,
    "values": 28251,
    "\u0120Kemp": 56411,
    "\u0120applaud": 58561,
    "IMGIMGHBHJZ": 7183,
    "isations": 48719,
    "\u0120Ariel": 61924,
    "IMGIMGGAIIZ": 6092,
    "<reserved14148>": 14152,
    "<reserved15783>": 15787,
    "\u0120identifies": 37826,
    "\u0120Recon": 52429,
    "Jak": 62165,
    "\u00e0\u00a6\u0141": 37437,
    "\u0120Journalism": 49060,
    "aps": 18220,
    "fork": 58191,
    "\u00c2\u00a7": 25660,
    "\u0120Rap": 29706,
    "\u0120ont": 34593,
    "Path": 21921,
    "\u0120communities": 21289,
    "aporation": 62262,
    "IMGIMGGHIIZ": 6792,
    "\u0120remedy": 39673,
    "kinson": 43033,
    "\u0120Croatia": 46568,
    "<reserved15091>": 15095,
    "cast": 19111,
    "\u0120excessively": 65165,
    "<reserved10892>": 10896,
    "\u0120renew": 23570,
    "\u0120Vogue": 63201,
    "\u0120rocks": 29922,
    "\u00e7\u013d\u00b4": 54951,
    "G": 16422,
    "<reserved14897>": 14901,
    "IMGIMGGIHZ": 691,
    "SR": 28271,
    "\u0120Surviv": 47532,
    "ongo": 34642,
    "igg": 35068,
    "\u00e3\u0123\u00ab\u00e3\u0124\u012a": 40494,
    "\u0120double": 20639,
    "IMGIMGDDCDZ": 3327,
    "\u0120fetch": 39604,
    "anyl": 57511,
    "\u0120unreasonable": 46336,
    "<reserved13740>": 13744,
    "\u00e1\u0122\u00bb": 53232,
    "<reserved14168>": 14172,
    "IMGIMGFEDDZ": 5437,
    "IMGIMGBEEDZ": 1447,
    "<reserved11832>": 11836,
    "\u0120fing": 42743,
    "\u0120Mos": 29693,
    "TER": 23271,
    "await": 45367,
    "<reserved14950>": 14954,
    "CDC": 57757,
    "\u0100": 16572,
    "\u0120predecessors": 55185,
    "\u0120\u00e0\u00a4\u00ae": 34345,
    "\u00e4\u00b8\u012c": 29815,
    "\u0120Safe": 35073,
    "\u0120Erik": 45193,
    "\u0120outward": 42767,
    "\u0120exists": 23496,
    "nya": 45517,
    "\u0120observed": 21852,
    "<reserved10189>": 10193,
    "Figure": 23236,
    "\u0120Belle": 43336,
    "\u0120Sek": 60905,
    "etra": 36120,
    "\u0120WHO": 35141,
    "IMGIMGBCJGZ": 1300,
    "IMGIMGEAFBZ": 4055,
    "scriptstyle": 44173,
    "erick": 63880,
    "<reserved10629>": 10633,
    "\u0120shirts": 39809,
    "IMGIMGHICZ": 786,
    "\u0120Charlie": 29187,
    "gypt": 23203,
    "\u0120aggression": 41283,
    "<reserved10759>": 10763,
    "<sentinel:279>": 8477,
    "cher": 18588,
    "\u0120gas": 20074,
    "IMGIMGGIIZ": 692,
    "IMGIMGFIDBZ": 5835,
    "IMGIMGHAIAZ": 7084,
    "\u0120climbing": 32605,
    "\u0120Dorothy": 47188,
    "\u0120terrestrial": 57653,
    "IMGIMGDBDHZ": 3141,
    "<reserved10336>": 10340,
    "\u0120Music": 21612,
    "Cons": 24694,
    "agan": 25509,
    "\u0120Modern": 27741,
    "\u0120Swan": 40460,
    "\u0120altern": 20376,
    "static": 22844,
    "ignore": 50295,
    "\u0120ROM": 54680,
    "m\u00c3\u00a4": 47126,
    "IMGIMGFFAHZ": 5511,
    "bib": 54690,
    "IMGIMGCDAAZ": 2304,
    "<reserved14281>": 14285,
    "ude": 18434,
    "\u0120tur": 24662,
    "<reserved10970>": 10974,
    "<sentinel:128>": 8326,
    "oss": 17694,
    "\u0120ta": 21447,
    "\u0120Lancaster": 47125,
    "\u0120tourists": 31108,
    "\u0120Kyle": 34232,
    "\u0120Console": 61812,
    "ums": 22896,
    "\u0120organizing": 35722,
    "\u0120ure": 46908,
    "Ma": 31975,
    "<reserved14845>": 14849,
    "\u0120geometric": 43657,
    "<reserved08934>": 8938,
    "rentice": 55840,
    "\u0120hered": 57375,
    "<reserved11811>": 11815,
    "onucle": 57609,
    "\u0120Singh": 30480,
    "curl": 62175,
    "\u0120COD": 63454,
    "\u0120u": 18923,
    "<reserved12660>": 12664,
    "\u0120channels": 25607,
    "IMGIMGGICHZ": 6831,
    "\u0120sore": 35774,
    "udeau": 47638,
    "\u0120illegal": 23872,
    "\u0120kil": 25120,
    "Cold": 50356,
    "\u0120Pe": 18718,
    "IMGIMGFHBZ": 575,
    "itol": 30615,
    "IMGIMGBDEGZ": 1350,
    "\u0120proximal": 53956,
    "\u0120observing": 40057,
    "\u0120graders": 63041,
    "IMGIMGBEBBZ": 1415,
    "\u0120turning": 23485,
    "<reserved10106>": 10110,
    "\u0120defeating": 49224,
    "<reserved11195>": 11199,
    "\u0120Bain": 63904,
    "\u0120Dental": 44431,
    "IMGIMGCEGHZ": 2471,
    "udad": 51239,
    "<reserved15916>": 15920,
    "<sentinel:201>": 8399,
    "<reserved10020>": 10024,
    "<reserved13988>": 13992,
    "\u0120\u00d0\u00b8": 19472,
    "<reserved15517>": 15521,
    "cretion": 31833,
    "\u0120dysfunction": 36002,
    "\u0120shades": 44643,
    "\u0120Reverend": 57560,
    "\u0120visitation": 64558,
    "IMGIMGBDBJZ": 1323,
    "<reserved13587>": 13591,
    "gage": 23509,
    "\u0120Heroes": 42449,
    "\u0120ceremonies": 45530,
    "\u0120Rings": 51559,
    "igentlich": 63352,
    "IMGIMGBCABZ": 1205,
    "\u0120algo": 62402,
    "\u0120weighed": 39716,
    "\u0120Grill": 52768,
    "manuel": 37200,
    "\u00d0\u00bb\u00d0\u00b5\u00d0\u00bd\u00d0\u00b8\u00d0\u00b5": 53349,
    "\u0120subsets": 60139,
    "\u0120Accord": 65530,
    "<reserved09494>": 9498,
    "<reserved14074>": 14078,
    "\u0120ep": 18887,
    "\u0120Tau": 65260,
    "\u0120pads": 42734,
    "Vector": 33752,
    "IMGIMGIHGZ": 880,
    "early": 30426,
    "IMGIMGHEIBZ": 7485,
    "\u0120taxpayers": 36578,
    "\u00e5\u00bc\u0137": 59749,
    "\u0120surfing": 48720,
    "\u0120Kes": 55905,
    "<reserved15080>": 15084,
    "\u0120abundant": 38709,
    "\u0120Glory": 51521,
    "\u0120theology": 39376,
    "\u0120Hut": 52285,
    "\u0120\u00d0\u00bc\u00d0\u00b0\u00d1\u0124": 53866,
    "\u0120Vander": 46137,
    "<reserved09159>": 9163,
    "IMGIMGFAEBZ": 5045,
    "IMGIMGGDJGZ": 6400,
    "\u0120Wild": 24621,
    "\u0120Record": 30420,
    "\u0120tx": 46302,
    "\u0120regulatory": 26525,
    "<reserved11816>": 11820,
    "cli": 54940,
    "\u0120diameter": 31351,
    "<reserved15974>": 15978,
    "\u0120digest": 35645,
    "<reserved11594>": 11598,
    "IMGIMGBDFFZ": 1359,
    "FR": 24829,
    "ishment": 25308,
    "xture": 25224,
    "<reserved09819>": 9823,
    "<reserved14645>": 14649,
    "IMGIMGEDJJZ": 4403,
    "<reserved15432>": 15436,
    "play": 18396,
    "itzer": 26781,
    "\u0120Mara": 63337,
    "\u0120synonymous": 54383,
    "<sentinel:489>": 8687,
    "<reserved08876>": 8880,
    "arker": 37472,
    "<reserved10891>": 10895,
    "\u00c3\u00b3w": 29873,
    "IMGIMGJECZ": 946,
    "\u0120\u00d8\u00a7\u00d9\u0126\u00d8\u00b4": 56209,
    "\u0120\u00e2\u013f\u00a4\u00ef\u00b8\u0131": 63034,
    "IMGIMGIBFJZ": 8163,
    "\u00e5\u00be\u0139": 45009,
    "\u0120Trump": 19023,
    "\u0120AU": 47756,
    "\u0120Norwich": 55598,
    "\u0120tyres": 64141,
    "\u0120Central": 21792,
    "IMGIMGFBFIZ": 5162,
    "IMGIMGCICDZ": 2827,
    "\u0120JUST": 46069,
    "\u0120Netherlands": 29681,
    "IMGIMGHADGZ": 7040,
    "zone": 27948,
    "<reserved15454>": 15458,
    "\u0120Actions": 52744,
    "\u0120POS": 50003,
    "blogspot": 40329,
    "life": 21806,
    "\u0120doctrines": 58616,
    "\u0120delve": 61353,
    "<reserved15293>": 15297,
    "uman": 20453,
    "Dispatch": 63693,
    "<reserved13421>": 13425,
    "<reserved16183>": 16187,
    "Fant": 47436,
    "\u0120\u00cf\u0128": 59465,
    "\u0120ble": 22912,
    "<reserved14563>": 14567,
    "\u0120vacant": 44156,
    "\u0120head": 17693,
    "\u0120vergang": 47110,
    "IMGIMGCHJJZ": 2803,
    "manage": 59373,
    "\u0120Pyongyang": 65028,
    "\u0120Tale": 44780,
    "UN": 21225,
    "\u0120ballots": 45287,
    "<reserved12943>": 12947,
    "SUB": 58061,
    "<reserved08877>": 8881,
    "\u0120reun": 31372,
    "\u0120guer": 42891,
    "<reserved14553>": 14557,
    "\u0120grup": 46043,
    "<reserved10588>": 10592,
    "\u0120Christian": 20387,
    "collapse": 64308,
    "\u0120olymp": 61684,
    "\u0120Beng": 31478,
    "NotFound": 46952,
    "IMGIMGHCFDZ": 7257,
    "IMGIMGCJEZ": 298,
    "\u00e0\u00ab\u0129": 45275,
    "\u0120bac": 61447,
    "closures": 64868,
    "\u0120Morris": 31640,
    "\u0120compatible": 32968,
    "\u0120vinyl": 39030,
    "KEY": 33369,
    "\u0120drank": 42201,
    "\u00e5\u0143\u00a6\u00e6\u0142\u00a1": 52616,
    "arently": 29849,
    "<reserved13488>": 13492,
    "venue": 20243,
    "\u0120clinics": 37790,
    "\u0120govern": 20516,
    "tail": 30639,
    "gamer": 60923,
    "\u0120Doors": 58002,
    "\u0120lex": 53490,
    "<reserved09161>": 9165,
    "<reserved10900>": 10904,
    "\u0120absent": 32157,
    "\u0120Mic": 23785,
    "\u0120Alexa": 49414,
    "<reserved14356>": 14360,
    "<reserved14848>": 14852,
    "oenix": 27867,
    "EDIT": 31023,
    "helper": 43998,
    "\u0120Emerald": 63897,
    "IMGIMGGCZ": 66,
    "<reserved10631>": 10635,
    "stable": 34041,
    "<reserved08759>": 8763,
    "\u0120Guitar": 43821,
    "ittee": 19658,
    "\u0120traumat": 59751,
    "\u0120sir": 30125,
    "\u0120rainbow": 45501,
    "IMGIMGBIZ": 22,
    "IMGIMGEFJJZ": 4603,
    "\u0120Airlines": 34523,
    "\u0120cardio": 59977,
    "\u0120prob": 18033,
    "\u0120hurry": 41860,
    "IMGIMGCFHJZ": 2583,
    "z\u00c4\u0127": 52601,
    "\u0120fellowship": 40487,
    "\u0120fa": 19493,
    "enge": 20051,
    "\u0120preserved": 35620,
    "\u0120VIII": 45776,
    "icons": 59915,
    "IMGIMGHCIGZ": 7290,
    "\u0120Zam": 54736,
    "\u0120Spart": 44090,
    "dain": 52101,
    "<reserved15975>": 15979,
    "IMGIMGBACCZ": 1026,
    "IMGIMGFFICZ": 5586,
    "IMGIMGHBDDZ": 7137,
    "\u0120three": 17567,
    "\u0120European": 20158,
    "<reserved11098>": 11102,
    "ovo": 32217,
    "arf": 45075,
    "rocket": 48272,
    "\u0120marriages": 43000,
    "IMGIMGCGHBZ": 2675,
    "IMGIMGGCGBZ": 6265,
    "\u0120abdom": 36326,
    "fach": 46480,
    "\u0120Carbon": 40910,
    "\u0120starving": 54376,
    "\u0120yer": 57340,
    "\u00c2\u0137": 60358,
    "\u0120Developer": 51488,
    "Within": 40799,
    "bul": 27146,
    "\u0120curse": 39019,
    "ambique": 61661,
    "\u0120node": 23314,
    "CONN": 62698,
    "IMGIMGBEHJZ": 1483,
    "\u00c3\u00a1g": 50282,
    "\u0120morals": 54262,
    "\u0120blat": 42467,
    "\u0120EX": 27163,
    "IMGIMGHFCZ": 756,
    "\u0120militants": 44271,
    "\u0120postings": 63940,
    "<reserved10213>": 10217,
    "\u0120Cells": 45382,
    "carbon": 38290,
    "<reserved13373>": 13377,
    "Ple": 64894,
    "rome": 22791,
    "IMGIMGHAEEZ": 7048,
    "\u0120Berlin": 25728,
    "\u0120Conditions": 44516,
    "IMGIMGCJHCZ": 2976,
    "falls": 32269,
    "\u0120parity": 54302,
    "SCs": 48641,
    "iw": 30710,
    "pept": 53009,
    "\u0120burgeoning": 65307,
    "IMGIMGIIBZ": 885,
    "\u00e5\u012d\u0137": 38738,
    "\u0120disrespect": 42402,
    "\u0120therap": 27032,
    "<reserved15832>": 15836,
    "IMGIMGHBBHZ": 7121,
    "Topics": 46103,
    "\u0120bumper": 52069,
    "\u0120Leah": 52098,
    "\u0120hugs": 56270,
    "\u0120Entrepreneurship": 59053,
    "\u0120WE": 31340,
    "<reserved14703>": 14707,
    "\u0120checks": 28400,
    "edar": 38122,
    "\u0120blows": 41515,
    "\u0120schooling": 48663,
    "ANI": 49858,
    "\u0120Driving": 47203,
    "IMGIMGDHBGZ": 3720,
    "IMGIMGBGEGZ": 1650,
    "\u0120labs": 44802,
    "<reserved15806>": 15810,
    "<reserved10761>": 10765,
    "<reserved15062>": 15066,
    "\u0120Brah": 55276,
    "Bottom": 43639,
    "\u0120Bah": 31035,
    "\u0120Sunshine": 50494,
    "\u0120isnt": 40900,
    "\u0120rookie": 37121,
    "\u0120Theo": 58180,
    "IMGIMGEIFEZ": 4858,
    "\u0120located": 20186,
    "\u0120necessities": 62048,
    "<reserved15410>": 15414,
    "<reserved11623>": 11627,
    "Construction": 53710,
    "<reserved12432>": 12436,
    "System": 23853,
    "\u0120Rent": 41108,
    "\u0120Larry": 31535,
    "<reserved14156>": 14160,
    "<reserved11452>": 11456,
    "<reserved13090>": 13094,
    "\u0120suspected": 30073,
    "Adam": 38878,
    "\u0120POV": 64254,
    "em": 16746,
    "\u00d2\u0135": 34724,
    "\u0120bore": 36363,
    "IMGIMGBEDFZ": 1439,
    "\u0120accol": 55637,
    "IMGIMGCCJHZ": 2301,
    "\u00d9\u0126\u00d9\u012b": 32404,
    "\u0120antique": 49347,
    "\u0120Visitor": 60415,
    "YS": 34320,
    "aron": 23414,
    "\u0120Nob": 25829,
    "\u0120evidence": 19591,
    "IMGIMGCFDBZ": 2535,
    "<reserved09814>": 9818,
    "ashion": 21297,
    "IMGIMGFFJBZ": 5595,
    "<reserved16369>": 16373,
    "\u0120incorrectly": 51315,
    "\u00d1\u012f": 27141,
    "\u0120specialists": 35236,
    "ulyo": 61956,
    "IMGIMGECDJZ": 4243,
    "\u0120Otherwise": 32906,
    "\u0120exacerb": 43749,
    "\u0120Anal": 32850,
    "wire": 38304,
    "icki": 50147,
    "\u0120prosec": 29227,
    "\u00c6\u00b0\u00e1\u00bb\u013fi": 55914,
    "<reserved08890>": 8894,
    "inte": 22465,
    "fuck": 36659,
    "Karl": 63557,
    "\u0120elongated": 63309,
    "\u0120Nielsen": 54299,
    "IMGIMGCBEIZ": 2152,
    "\u0120snap": 29407,
    "\u0120inh": 47675,
    "\u0120Jah": 23127,
    "\u0120participating": 27880,
    "\u0120Scouts": 50809,
    "\u0120plains": 55624,
    "lator": 59851,
    "<sentinel:47>": 8245,
    "\u0120Hob": 36594,
    "\u0120legitim": 42651,
    "<reserved12789>": 12793,
    "\u0120disg": 28863,
    "shire": 24700,
    "cke": 36754,
    "uala": 54575,
    "ceived": 24112,
    "one": 16877,
    "\u0120Teachers": 37876,
    "\u0120Valent": 33112,
    "<reserved10274>": 10278,
    "IMGIMGHCAZ": 724,
    "<reserved15508>": 15512,
    "\u0120KY": 48573,
    "ifest": 24164,
    "\u0120unleashed": 59786,
    "\u0120overdue": 57815,
    "\u0120Kimberly": 60157,
    "thlete": 33328,
    "\u0120Portfolio": 51790,
    "endered": 58982,
    "dial": 64983,
    "\u0120targets": 25749,
    "\u0120surviv": 28096,
    "\u0120corrections": 44246,
    "IMGIMGDAHGZ": 3080,
    "Wood": 38868,
    "IMGIMGFIHFZ": 5879,
    "<reserved14202>": 14206,
    "\u00d0\u00b5\u00d0\u00bb\u00d1\u0131": 52626,
    "\u0120Tibet": 48587,
    "<reserved12872>": 12876,
    "ST": 17904,
    "\u0120Python": 35358,
    "\u0120ye": 26598,
    "<reserved14177>": 14181,
    "\u0120AL": 25629,
    "\u0120Kas": 37550,
    "Suite": 53828,
    "<reserved14111>": 14115,
    "\u00ec\u0142": 32367,
    "issance": 31249,
    "\u0120\u00e0\u00a6\u0131": 42510,
    "IMGIMGEIEBZ": 4845,
    "\u0120bigger": 22794,
    "\u0120Lot": 32066,
    "ged": 17825,
    "<reserved13423>": 13427,
    "<reserved12929>": 12933,
    "\u0120rep": 17573,
    "Former": 32595,
    "\u0120Chess": 55499,
    "\u0120illustrated": 30457,
    "IMGIMGHDFCZ": 7356,
    "Sunday": 36827,
    "\u0120topic": 22573,
    "<reserved16230>": 16234,
    "\u0120Ore": 52090,
    "oske": 52096,
    "IMGIMGEDECZ": 4346,
    "IMGIMGDDAHZ": 3311,
    "<reserved09908>": 9912,
    "\u0120AI": 27081,
    "OY": 40630,
    "elen": 45508,
    "<reserved11910>": 11914,
    "Independent": 57204,
    "\u0120midfield": 49039,
    "Tot": 50311,
    "<reserved11459>": 11463,
    "IMGIMGCEJBZ": 2495,
    "<reserved13344>": 13348,
    "\u0120caps": 29666,
    "\u0120\u00eb\u00b6": 55919,
    "\u00e3\u0125\u00bb": 23588,
    "\u0120timetable": 61589,
    "<reserved13216>": 13220,
    "<reserved15220>": 15224,
    "\u0120enjoying": 27131,
    "IMGIMGEGCGZ": 4630,
    "<reserved09032>": 9036,
    "\u00a9": 16486,
    "Save": 35709,
    "enty": 19980,
    "\u0120Nicholas": 35944,
    "\u00ec\u013d": 38549,
    "nesdays": 62073,
    "\u0120rac": 23919,
    "IMGIMGCCAFZ": 2209,
    "\u0120CBS": 32624,
    "ropic": 35911,
    "rupts": 55548,
    "\u0120unpleasant": 43008,
    "rounds": 52214,
    "Applic": 62169,
    "\u0120tro": 21333,
    "<reserved08849>": 8853,
    "<sentinel:289>": 8487,
    "Pane": 51193,
    "IMGIMGBHDBZ": 1735,
    "\u0120documented": 32689,
    "\u0120Rabbit": 53974,
    "<reserved15363>": 15367,
    "extract": 59471,
    "\u0120Inside": 35544,
    "jen": 30560,
    "\u0120Carmen": 55254,
    "\u0120dialysis": 60883,
    "figure": 24611,
    "Dependency": 62936,
    "\u00fd": 16569,
    "lingen": 59433,
    "\u0120detach": 65114,
    "package": 25323,
    "boot": 31217,
    "\u0120falls": 25903,
    "\u0120nav": 22527,
    "IMGIMGCIGAZ": 2864,
    "\u0132\u00d7\u013e": 59845,
    "IMGIMGFGBEZ": 5618,
    "<reserved09831>": 9835,
    "\u0120poem": 30257,
    "\u0120potato": 39963,
    "ynamic": 32208,
    "\u0120Wealth": 40172,
    "\u0120dust": 25891,
    "Gi": 46929,
    "\u0120wars": 29796,
    "\u0120detected": 27024,
    "Hours": 58202,
    "\u0120attribute": 30111,
    "<reserved14009>": 14013,
    "\u0120Ive": 48884,
    "IMGIMGJICZ": 986,
    "<reserved11112>": 11116,
    "File": 21188,
    "\u00d0\u00be\u00d0\u00b4": 19767,
    ".": 16397,
    "ADS": 60471,
    "<reserved11934>": 11938,
    "prototype": 23814,
    "\u0120dissolve": 58829,
    "\u0120ponder": 45005,
    "<reserved13810>": 13814,
    "\u0120Mrs": 24356,
    "\u0120Montreal": 33720,
    "<reserved15763>": 15767,
    "\u0120mga": 35653,
    "\u0120quantities": 35830,
    "\u0120gradual": 44178,
    "IMGIMGHFBAZ": 7514,
    "ffer": 44353,
    "\u0120settling": 42515,
    "\u0120quartz": 62141,
    "\u0120impairment": 40124,
    "\u0120abund": 27278,
    "More": 21549,
    "IMGIMGGIDZ": 687,
    "affe": 38705,
    "\u00c5\u0124": 20620,
    "relations": 42838,
    "elly": 23782,
    "IMGIMGGCAZ": 624,
    "IMGIMGHBFJZ": 7163,
    "IMGIMGHJDHZ": 7941,
    "IMGIMGGCDBZ": 6235,
    "<reserved13861>": 13865,
    "aming": 20393,
    "\u0120Strauss": 59948,
    "<reserved16298>": 16302,
    "ophobic": 50550,
    "<reserved15630>": 15634,
    "omb": 19797,
    "\u0120SEC": 28652,
    "IAL": 30196,
    "\u0120Guy": 30446,
    "IMGIMGECAEZ": 4208,
    "\u0120padding": 51458,
    "\u0120turbulence": 60050,
    "IMGIMGDADCZ": 3036,
    "<reserved12247>": 12251,
    "\u0120Judaism": 46674,
    "\u0120Condition": 47150,
    "\u0120centr": 49577,
    "\u0120Hurt": 62463,
    "incess": 26898,
    "\u00d1\u0123\u00d1\u012e": 24874,
    "\u0120specify": 34279,
    "\u0120inventor": 52819,
    "\u00e3\u0123\u0137\u00e3\u0124\u012e\u00e3\u0123\u00a6\u00e3\u0123\u0126\u00e3\u0124\u012d": 58189,
    "IMGIMGEAEEZ": 4048,
    "\u0120potential": 19056,
    "<reserved12628>": 12632,
    "STATE": 46466,
    "cluded": 44072,
    "\u0120pathetic": 43484,
    "\u0120Goals": 48030,
    "Name": 18679,
    "Long": 26663,
    "\u0120fight": 19080,
    "imental": 30248,
    "<reserved08860>": 8864,
    "<reserved14208>": 14212,
    "Residents": 64037,
    "oli": 25459,
    "\u0120soluble": 52948,
    "\u0120nalista": 53610,
    "IMGIMGGEGFZ": 6469,
    "\u0120goddamn": 55308,
    "\u0120burgl": 50371,
    "\u0120circumstances": 23258,
    "\u0120decade": 23411,
    "vid": 31177,
    "Chain": 43674,
    "\u0120Durant": 59320,
    "\u0120Programming": 51138,
    "\u0120biz": 51286,
    "\u0120quad": 30809,
    "Free": 27769,
    "\u0120anticip": 24447,
    "<reserved14932>": 14936,
    "Episode": 48513,
    "\u0120psychiat": 39815,
    "\u0120prem": 20418,
    "resse": 49007,
    "cially": 18296,
    "\u0120ved": 41742,
    "\u0120Wolver": 49892,
    "hh": 24253,
    "<reserved09241>": 9245,
    "\u0120\u00d2": 30642,
    "\u0120Mock": 44407,
    "\u0120landscaping": 61469,
    "\u0120Grandma": 56466,
    "ATION": 22927,
    "\u0120Wal": 22676,
    "\u0120shaky": 59899,
    "\u0120WS": 45672,
    "<reserved11778>": 11782,
    "\u0120authorized": 30936,
    "<reserved10463>": 10467,
    "eli": 26975,
    "\u0120demands": 26271,
    "\u0120Cant": 33865,
    "\u0120township": 51768,
    "\u0120Fridays": 54874,
    "IMGIMGCFFDZ": 2557,
    "IMGIMGFCAAZ": 5204,
    "anced": 19869,
    "\u0120Alliance": 29109,
    "IMGIMGCCHGZ": 2280,
    "hemat": 24807,
    "\u0120horr": 33255,
    "\u0120accountability": 35132,
    "\u0120Middles": 58586,
    "\u00e0\u00b4\u00aa": 44120,
    "<reserved13352>": 13356,
    "\u0120Happ": 33592,
    "\u0120Lena": 60608,
    "IMGIMGFEIEZ": 5488,
    "\u0120Island": 21879,
    "IMGIMGFFEJZ": 5553,
    "\u0120cross": 19532,
    "Changes": 47323,
    "Short": 31829,
    "ya": 20225,
    "\u0120Riding": 62444,
    "Expand": 50414,
    "Having": 30359,
    "\u0120graceful": 63175,
    "\u0120multinational": 47735,
    "\u00e4\u00bb\u00a5": 33547,
    "\u0120alterations": 46970,
    "\u0120Hits": 51336,
    "osph": 24594,
    "\u0120Printing": 56790,
    "\u0120diminishing": 61587,
    "\u0120ay": 41303,
    "bsite": 28248,
    "IMGIMGEIFFZ": 4859,
    "IMGIMGFFIFZ": 5589,
    "IMGIMGCABDZ": 2017,
    "ges": 18249,
    "\u0120endpoint": 45507,
    "orrect": 63732,
    "IMGIMGDDDGZ": 3340,
    "<reserved15497>": 15501,
    "activ": 29893,
    "Generation": 64272,
    "<reserved14207>": 14211,
    "IMGIMGDGAEZ": 3608,
    "\u0120rather": 18661,
    "IMGIMGEHAAZ": 4704,
    "\u0120shocked": 30712,
    "osition": 20035,
    "<sentinel:371>": 8569,
    "frage": 64422,
    "<reserved09172>": 9176,
    "cloud": 32519,
    "olic": 20673,
    "interval": 53159,
    "\u00d7\u013b\u00d7\u00a7": 52407,
    "IMGIMGHFAGZ": 7510,
    "\u0120Schiff": 60029,
    "IMGIMGBBDIZ": 1142,
    "IMGIMGGIGHZ": 6871,
    "Send": 34394,
    "\u0120Cake": 58374,
    "\u0120false": 19506,
    "<reserved13290>": 13294,
    "\u0120Released": 55409,
    "<reserved11082>": 11086,
    "\u0120commitments": 37582,
    "\u0120Daily": 24290,
    "\u0120Saunders": 59255,
    "LOS": 61270,
    "\u0120MAX": 43909,
    "vod": 46476,
    "\u00d1\u0122\u00d1\u0125": 23583,
    "\u0120Proof": 49496,
    "\u0120dawn": 35281,
    "\u0120\u00c3\u0143": 60824,
    "\u0120MMO": 59470,
    "Min": 24715,
    "\u0120gewesen": 53810,
    "\u0120accompany": 31014,
    "anz": 22704,
    "<reserved16327>": 16331,
    "oles": 21046,
    "\u0120Earlier": 45049,
    "ukes": 47645,
    "Tyler": 61670,
    "\u0120Muhammad": 35795,
    "\u0120Sutherland": 64816,
    "IMGIMGCBGGZ": 2170,
    "IMGIMGFCAHZ": 5211,
    "ortic": 38871,
    "\u0120topped": 41238,
    "Almost": 42190,
    "\u013f\u00a4": 43356,
    "ergy": 32051,
    "\u0120veterin": 54338,
    "\u0120sil": 19670,
    "IMGIMGDAFJZ": 3063,
    "phrase": 60561,
    "\u0120nearer": 59189,
    "\u00e0\u00a4\u00bc": 62884,
    "\u0120Belarus": 48657,
    "uli": 34664,
    "\u0120council": 23918,
    "andin": 44835,
    "ivalent": 45047,
    "umers": 46901,
    "\u0120ber": 26632,
    "\u00e8\u0124\u00b2": 60709,
    "pector": 30963,
    "\u0120roadmap": 59095,
    "Cr": 30161,
    "IMGIMGDIJIZ": 3902,
    "<reserved08935>": 8939,
    "\u0120Leadership": 30469,
    "IMGIMGGIBCZ": 6816,
    "esto": 38596,
    "<reserved14755>": 14759,
    "\u0120diss": 23206,
    "omal": 34043,
    "bin": 24144,
    "IMGIMGBBBIZ": 1122,
    "IMGIMGECBAZ": 4214,
    "\u00e0\u00ae\u00aa\u00e0\u00ae\u0141": 58471,
    "back": 18252,
    "\u0120sheath": 65412,
    "<reserved10856>": 10860,
    "\u0120Spin": 49388,
    "amus": 42590,
    "\u0120sake": 28171,
    "cury": 33046,
    "IMGIMGEGCCZ": 4626,
    "IMGIMGGBCHZ": 6131,
    "\u0120\u00d5\u00af": 38772,
    "Prop": 33665,
    "bg": 44737,
    "\u0120Intelligence": 30833,
    "\u0120tenor": 61465,
    "\u0120inverted": 56921,
    "Fake": 52965,
    "wheel": 37786,
    "\u0120Arsenal": 35855,
    "\u0120endlessly": 59630,
    "\u0120Berg": 35588,
    "\u0120barrel": 29031,
    "\u0120exactly": 20001,
    "Summary": 39026,
    "va": 20401,
    "\u0120Wad": 65402,
    "uary": 18773,
    "Dra": 42237,
    "<reserved13687>": 13691,
    "<reserved11121>": 11125,
    "\u0120donated": 32960,
    "<reserved16084>": 16088,
    "\u0120optimize": 41209,
    "orsche": 42779,
    "IMGIMGHDEZ": 738,
    "\u0120fret": 57142,
    "\u0120occurrences": 60297,
    "IMGIMGCBAHZ": 2111,
    "\u0120study": 18077,
    "iquette": 55074,
    "\u0120protocols": 34670,
    "\u0120thumb": 32544,
    "\u0120manic": 56593,
    "IMGIMGCEGEZ": 2468,
    "<reserved09057>": 9061,
    "stands": 65462,
    "<reserved09728>": 9732,
    "IMGIMGGEEFZ": 6449,
    "\u0120instrument": 23963,
    "\u0120dess": 32992,
    "\u0120akt": 36140,
    "commercial": 58317,
    "\u0120geographically": 65247,
    "\u0120televised": 58084,
    "IMGIMGBIECZ": 1846,
    "\u0120worker": 26907,
    "fahr": 52388,
    "itos": 47226,
    "generic": 55647,
    "IMGIMGBCIIZ": 1292,
    "\u0120hovering": 59446,
    "<reserved09099>": 9103,
    "<reserved09724>": 9728,
    "\u0120disco": 20924,
    "\u00e0\u00a4\u00a1": 43428,
    "\u0120constants": 46014,
    "\u0120indign": 61274,
    "\u0120AMC": 54017,
    "ver": 16722,
    "\u0120mainland": 42581,
    "\u0120pokemon": 52969,
    "WHO": 53550,
    "ypical": 61426,
    "\u0120Jeb": 64931,
    "IMGIMGCADBZ": 2035,
    "<reserved10079>": 10083,
    "<reserved10682>": 10686,
    "\u0120Forbes": 42165,
    "\u0120namespace": 40469,
    "\u0120\u00d8\u0143": 29903,
    "rank": 31381,
    "\u0120RL": 57133,
    "\u0120Unique": 55754,
    "<reserved12454>": 12458,
    "NP": 34141,
    "\u0120binds": 52682,
    "WHERE": 48123,
    "\u00c5\u0133": 27451,
    "\u0120Ming": 51266,
    "\u0120Hale": 54322,
    "\u0120Artikel": 64315,
    "Mother": 41956,
    "ensus": 22893,
    "\u00e8\u012a": 32414,
    "\u0120\u00c3\u00a9p": 50104,
    "\u0120facets": 55009,
    "\u0120Santa": 24657,
    "\u0120ML": 29625,
    "<reserved16023>": 16027,
    "\u0120Gregory": 39132,
    "\u0120pattern": 20610,
    "<reserved11312>": 11316,
    "\u0120Firstly": 55344,
    "Ag": 21926,
    "\u0120depletion": 55942,
    "uan": 23249,
    "IMGIMGDCIBZ": 3285,
    "IMGIMGGIAEZ": 6808,
    "omp": 44260,
    "\u0120struggles": 31075,
    "\u0120chaos": 31587,
    "inational": 44735,
    "<reserved09089>": 9093,
    "<reserved12312>": 12316,
    "IMGIMGEIJZ": 493,
    "\u0120Lloyd": 38091,
    "\u0120Sus": 24499,
    "\u0120microbi": 44092,
    "\u0120UI": 33215,
    "tesy": 49375,
    "IMGIMGCBJZ": 223,
    "cker": 23684,
    "still": 38695,
    "\u0120protect": 19238,
    "<reserved09235>": 9239,
    "IMGIMGGFDJZ": 6543,
    "<reserved13838>": 13842,
    "\u0120al": 16813,
    "IMGIMGGHJFZ": 6799,
    "cket": 21721,
    "\u0120Dating": 58025,
    "\u0120Disease": 31232,
    "<reserved09804>": 9808,
    "\u0120dynamically": 52421,
    "IMGIMGGAGCZ": 6066,
    "\u0120homelessness": 49458,
    "<reserved10669>": 10673,
    "Training": 53663,
    "<sentinel:443>": 8641,
    "cpu": 52827,
    "rising": 48627,
    "year": 18673,
    "<reserved15947>": 15951,
    "\u0120fence": 32892,
    "\u0120ie": 46722,
    "<reserved09000>": 9004,
    "<reserved15200>": 15204,
    "\u0120MF": 55089,
    "hematic": 49186,
    "\u0120artists": 22263,
    "<reserved15143>": 15147,
    "<reserved14100>": 14104,
    "\u0120sacked": 57535,
    "lude": 63287,
    "\u00d8\u00a5": 40560,
    "IMGIMGCJGJZ": 2973,
    "\u0120Volkswagen": 49766,
    "hiyon": 65182,
    "<reserved10140>": 10144,
    "<reserved13178>": 13182,
    "IMGIMGECCZ": 426,
    "<reserved15735>": 15739,
    "IMGIMGDAEDZ": 3047,
    "IMGIMGEAEZ": 408,
    "\u0120price": 18787,
    "\u00cf\u0125": 22023,
    "section": 21095,
    "\u0120weekend": 21013,
    "\u0120matching": 29822,
    "\u0120electrons": 41893,
    "aze": 23917,
    "<reserved11293>": 11297,
    "<reserved16294>": 16298,
    "\u0120Schwar": 42805,
    "\u0120mothers": 30472,
    "<reserved09171>": 9175,
    "\u0120lunch": 24408,
    "\u0120staircase": 55531,
    "\u0120Woche": 57533,
    "\u0120democrats": 62434,
    "\u0120Vern": 40208,
    "\u0120recognizable": 52118,
    "\u0120guy": 19475,
    "\u0120CAP": 41058,
    "IMGIMGEAFIZ": 4062,
    "\u0120manipulate": 41937,
    "\u0120arche": 43098,
    "\u0120REUTERS": 51906,
    "<reserved09006>": 9010,
    "\u0120cannot": 19108,
    "\u0120global": 19364,
    "\u00e2\u013a": 41438,
    "\u0120intended": 22696,
    "\u0120toler": 25376,
    "\u0120frig": 57788,
    "\u0120couple": 19201,
    "IMGIMGBGHCZ": 1676,
    "IMGIMGGJJFZ": 6999,
    "\u0120receiving": 23228,
    "\u0120kidding": 40606,
    "\u00d0\u00bd\u00d0\u00b4": 49901,
    "Layer": 40804,
    "Evidence": 64180,
    "IMGIMGHHDDZ": 7737,
    "serve": 57969,
    "\u0120worrying": 37023,
    "<reserved16132>": 16136,
    "IMGIMGHAHEZ": 7078,
    "\u0120beaches": 34293,
    "\u0120grassroots": 48938,
    "\u0120vine": 33704,
    "\u0120unus": 25318,
    "ERIC": 55868,
    "ialog": 28894,
    "\u0120virt": 21059,
    "enges": 40005,
    "<reserved12075>": 12079,
    "RESU": 51704,
    "\u0120elabor": 30718,
    "IMGIMGFCEEZ": 5248,
    "\u0120stationary": 44117,
    "allen": 55800,
    "IMGIMGEGGGZ": 4670,
    "\u0120zen": 43975,
    "IMGIMGCEADZ": 2407,
    "\u0120gust": 45443,
    "resc": 64207,
    "\u0120Eu": 47020,
    "xn": 64467,
    "\u00e5\u00a5": 29473,
    "Jewish": 51800,
    "\u0120revelation": 38164,
    "\u0120Ange": 49228,
    "\u0120subt": 31820,
    "<reserved12317>": 12321,
    "\u0120file": 19471,
    "\u0120dream": 20268,
    "IMGIMGBAIAZ": 1084,
    "vm": 31788,
    "ticket": 63533,
    "se": 16710,
    "\u0120fet": 33911,
    "bath": 63558,
    "<reserved11027>": 11031,
    "usty": 60802,
    "<reserved15933>": 15937,
    "umb": 18637,
    "\u0120Union": 21383,
    "hang": 31679,
    "\u0120frankly": 37564,
    "\u0120burns": 42343,
    "\u0120evidently": 49103,
    "<reserved15582>": 15586,
    "\u0120conc": 18476,
    "\u0120charge": 20705,
    "aset": 42133,
    "\u0120normalized": 43755,
    "\u0120mattress": 53346,
    "<reserved16267>": 16271,
    "\u0120scans": 44280,
    "<reserved13161>": 13165,
    "\u0120Ensure": 61228,
    "\u0120climbs": 61355,
    "IMGIMGGAHEZ": 6078,
    "<reserved14592>": 14596,
    "\u00c3\u0122": 62258,
    "IMGIMGGDFCZ": 6356,
    "IMGIMGCABEZ": 2018,
    "<reserved09170>": 9174,
    "IMGIMGEIIFZ": 4889,
    "\u0120YOU": 23935,
    "<reserved15257>": 15261,
    "Bus": 42816,
    "\u0120mine": 21583,
    "\u00d1\u012a\u00d0\u00b0": 43024,
    "\u0120hath": 49296,
    "\u0120compose": 54844,
    "IMGIMGGHDFZ": 6739,
    "\u0120caffeine": 48266,
    "elo": 33207,
    "oresc": 36228,
    "\u0120speculative": 53226,
    "\u0120poll": 21509,
    "IMGIMGDBJAZ": 3194,
    "\u0120neo": 37706,
    "Yep": 54981,
    "estate": 63884,
    "\u0120broadcasts": 54707,
    "\u0120Barber": 53303,
    "\u0120manifold": 50256,
    "\u0120doubles": 40660,
    "Pat": 24561,
    "IMGIMGEEFZ": 449,
    "IMGIMGIFFZ": 859,
    "\u00e0\u00b0\u0137": 31301,
    "\u0120Parking": 51758,
    "IMGIMGHACHZ": 7031,
    "\u00e5\u00a4\u00aa": 52945,
    "ys": 17129,
    "Books": 39347,
    "\u0120variability": 40848,
    "\u0120adoles": 32003,
    "Hero": 45062,
    "ATO": 31850,
    "pere": 54348,
    "\u0120framework": 24819,
    "\u0120PET": 42400,
    "\u0120You": 17332,
    "IMGIMGECBBZ": 4215,
    "IMGIMGECDDZ": 4237,
    "\u0120communication": 21318,
    "<reserved09689>": 9693,
    "<reserved13598>": 13602,
    "IMGIMGCJDFZ": 2939,
    "ily": 17164,
    "\u0120Afghan": 24961,
    "\u0120Eyes": 42694,
    "<reserved10144>": 10148,
    "Touch": 43570,
    "\u0120Scotia": 49324,
    "\u0120crib": 64276,
    "\u00e7\u012b\u00b9": 40539,
    "IMGIMGHJIIZ": 7992,
    "<reserved11273>": 11277,
    "MG": 36361,
    "IMGIMGBHIFZ": 1789,
    "\u00e6\u0135": 50639,
    "\u0120Mines": 60890,
    "\u0120advertisement": 39992,
    "IMGIMGBJCBZ": 1925,
    "<reserved10526>": 10530,
    "<reserved13140>": 13144,
    "aman": 27504,
    "pec": 51023,
    "\u0120Infinite": 59121,
    "uffy": 34710,
    "IMGIMGDEGBZ": 3465,
    "\u0120Veterans": 35163,
    "\u0120fuels": 37354,
    "\u00e6\u00a9": 37723,
    "authored": 63710,
    "fficiency": 41840,
    "pathy": 49002,
    "arp": 22374,
    "<reserved08923>": 8927,
    "\u0120Different": 33904,
    "IMGIMGFAHZ": 511,
    "<reserved14690>": 14694,
    "ero": 19647,
    "Eve": 64767,
    "IMGIMGDEGEZ": 3468,
    "\u0120until": 18015,
    "\u00d1\u012f\u00d0\u00bd": 59752,
    "\u0120dreamed": 45540,
    "Right": 26380,
    "<reserved09303>": 9307,
    "\u0120Mesa": 51167,
    "\u0120\u00d0\u0138": 55300,
    "ydney": 26492,
    "\u0120prevented": 33883,
    "\u0120curriculum": 29163,
    "\u0120biased": 39068,
    "GF": 29874,
    "IMGIMGGCAHZ": 6211,
    "\u0120carbon": 23070,
    "\u0120lies": 24166,
    "\u0120evolution": 23777,
    "\u0120laz": 57645,
    "\u0120ultras": 40589,
    "IMGIMGCACGZ": 2030,
    "\u0120\u00d0\u00a8": 40264,
    "IMGIMGDGIJZ": 3693,
    "\u0120fol": 20751,
    "emiology": 51668,
    "\u0120OECD": 58247,
    "\u0120Identification": 55038,
    "\u0120their": 16914,
    "arch": 17300,
    "IMGIMGHIGZ": 790,
    "\u010a": 16582,
    "\u0120doubled": 37270,
    "\u0120constantly": 23752,
    "\u0120Provides": 60730,
    "<reserved16004>": 16008,
    "\u0120canine": 63243,
    "<reserved09257>": 9261,
    "\u0120concepts": 26417,
    "\u0120unimagin": 64224,
    "<reserved12948>": 12952,
    "<reserved10474>": 10478,
    "<reserved13002>": 13006,
    "\u0120speaker": 27009,
    "\u0120Ghost": 32464,
    "\u0120Wade": 41614,
    "Friends": 50231,
    "\u0120look": 17158,
    "\u0120Bean": 51633,
    "deal": 37322,
    "<reserved10876>": 10880,
    "\u0120Medina": 63631,
    "IMGIMGEFIGZ": 4590,
    "\u0120Profile": 35759,
    "ime": 16902,
    "\u0120glass": 21543,
    "\u0120blew": 36585,
    "\u0120narc": 38608,
    "\u0120Hun": 24149,
    "\u0120tract": 34472,
    "\u0120Dogs": 41343,
    "<reserved11806>": 11810,
    "\u0120lion": 39087,
    "IMGIMGDEZ": 38,
    "\u0120solving": 32420,
    "IMGIMGHHIIZ": 7792,
    "\u0120Hu": 29521,
    "\u0120maintain": 19834,
    "Based": 29803,
    "\u00c9": 16517,
    "\u0120Nigerian": 38256,
    "IMGIMGHCBCZ": 7216,
    "cence": 46202,
    "nery": 53766,
    "Va": 48274,
    "<sentinel:502>": 8700,
    "Signal": 62142,
    "\u00d1\u0123\u00d1\u0124\u00d0\u00b0": 41132,
    "\u0120seemed": 20749,
    "Eastern": 60102,
    "IMGIMGJGAZ": 964,
    "IMGIMGBCBEZ": 1218,
    "<reserved12050>": 12054,
    "<reserved09298>": 9302,
    "W": 16438,
    "IMGIMGFDCJZ": 5333,
    "\u0120Foundation": 21945,
    "\u0120statistically": 36833,
    "<reserved10622>": 10626,
    "IMGIMGIAEZ": 808,
    "IMGIMGDADZ": 307,
    "<reserved13714>": 13718,
    "\u0120mediation": 50188,
    "Katie": 64027,
    "\u0120share": 18634,
    "\u0120cessation": 61581,
    "<reserved09510>": 9514,
    "\u0120FIT": 61633,
    "\u0120iPad": 31391,
    "\u0120reass": 31999,
    "video": 32570,
    "\u0120vr": 49780,
    "\u0120Marijuana": 55324,
    "\u0120needles": 49947,
    "\u0120politics": 22446,
    "\u00e5\u0141\u0130": 50910,
    "\u0120Il": 25059,
    "\u0120oven": 36994,
    "<reserved16243>": 16247,
    "rology": 54626,
    "<reserved09338>": 9342,
    "identified": 44163,
    "\u0120Lists": 63409,
    "\u0120convin": 24618,
    "mon": 19345,
    "IMGIMGEFAFZ": 4509,
    "\u0120solo": 24589,
    "UD": 26423,
    "IMGIMGCIHDZ": 2877,
    "\u0120allowance": 43469,
    "\u0120harm": 21181,
    "\u0120dav": 43418,
    "\u0120presents": 25268,
    "\u0120newcomers": 55799,
    "\u0120Yak": 59286,
    "\u0120Marketplace": 60168,
    "\u0120crave": 64125,
    "Topic": 18348,
    "oux": 35593,
    "\u0120mum": 35611,
    "\u0120hygiene": 42923,
    "IMGIMGCJHEZ": 2978,
    "\u0120fot": 47889,
    "imbledon": 50614,
    "\u0120awards": 25321,
    "<reserved14250>": 14254,
    "\u0120omission": 62548,
    "\u0120high": 17362,
    "IMGIMGDECHZ": 3431,
    "\u0120stomach": 28025,
    "<reserved11761>": 11765,
    "\u0120initiated": 33024,
    "\u0120Lov": 51422,
    "\u0120Ow": 40232,
    "<reserved11716>": 11720,
    "\u0120Gul": 49275,
    "weather": 44051,
    "IMGIMGDGAGZ": 3610,
    "\u0120independence": 28218,
    "AST": 44753,
    "\u0120pir": 35165,
    "aur": 18965,
    "\u0120Esk": 58101,
    "<sentinel:342>": 8540,
    "<reserved14446>": 14450,
    "onew": 59697,
    "\u0120emer": 19687,
    "\u0120thoughts": 21444,
    "annon": 29276,
    "\u00e5\u012b": 29440,
    "\u00c3\u00a7\u00c3\u00b5es": 42914,
    "<reserved11954>": 11958,
    "<reserved12030>": 12034,
    "\u0120kont": 39737,
    "getValue": 42670,
    "ienst": 44016,
    "ChI": 41943,
    "moment": 54556,
    "IMGIMGGADHZ": 6041,
    "awed": 62819,
    "\u0120acres": 30690,
    "uc": 17495,
    "\u0120conspic": 58234,
    "\u0120shadow": 27893,
    "ivariate": 47037,
    "<reserved09345>": 9349,
    "Warning": 45894,
    "\u0120DAY": 49012,
    "IMGIMGCHGIZ": 2772,
    "IMGIMGGAGDZ": 6067,
    "Mod": 20482,
    "\u0120queries": 38915,
    "Virgin": 48324,
    "IMGIMGHFJCZ": 7596,
    "\u0120Soldier": 51489,
    "\u0120lengthy": 37349,
    "<sentinel:385>": 8583,
    "\u0120homer": 56382,
    "\u0120prevail": 51797,
    "SK": 36851,
    "\u0120crank": 60174,
    "<reserved11981>": 11985,
    "\u0120messaging": 38157,
    "\u0120isolate": 46585,
    "\u0120Engineer": 40355,
    "\u0120Evelyn": 56403,
    "IMGIMGGGDDZ": 6637,
    "\u0120bund": 38777,
    "<reserved12189>": 12193,
    "<reserved14434>": 14438,
    "\u0120Hur": 27646,
    "\u0120Colts": 52931,
    "actus": 51162,
    "\u0120Ba": 24323,
    "\u00ef\u00bb\u00bf": 31572,
    "\u00d7\u00a8\u00d7": 24752,
    "\u0120stead": 25070,
    "Full": 28322,
    "ambda": 21713,
    "\u0120Nacional": 52763,
    "\u0120Athe": 54181,
    "IMGIMGFHAHZ": 5711,
    "IMGIMGCCICZ": 2286,
    "\u0120Franz": 43027,
    "\u0120ethos": 59792,
    "\u0120sanit": 59257,
    "aaa": 45128,
    "\u0120morphology": 47837,
    "IMGIMGGDGHZ": 6371,
    "ink": 16976,
    "\u00eb\u012c\u0136": 31454,
    "odi": 36304,
    "IMGIMGBEGFZ": 1469,
    "\u0120exchanging": 59928,
    "\u0120Republican": 23025,
    "Recommended": 55713,
    "IMGIMGFDIDZ": 5387,
    "\u0120drafted": 38062,
    "Yellow": 58474,
    "<reserved14708>": 14712,
    "\u0120misguided": 57336,
    "vere": 20572,
    "\u0120Http": 45601,
    "<reserved15799>": 15803,
    "tor": 28485,
    "\u0120conventional": 26086,
    "\u0120Lomb": 49350,
    "<reserved10595>": 10599,
    "leq": 26057,
    "acted": 51877,
    "kus": 53181,
    "<reserved14884>": 14888,
    "\u00e5\u00bc": 27166,
    "<reserved09135>": 9139,
    "<reserved13480>": 13484,
    "culture": 44161,
    "\u0120Maps": 42465,
    "\u0120enforcing": 52543,
    "\u0120Afric": 19285,
    "\u0120Darren": 50722,
    "onie": 55086,
    "<reserved14319>": 14323,
    "Spring": 39451,
    "Updated": 43473,
    "<reserved15702>": 15706,
    "\u0120showcasing": 50592,
    "Travel": 41841,
    "<reserved09117>": 9121,
    "\u0120pertinent": 49445,
    "IMGIMGDHHIZ": 3782,
    "\u0120fuss": 50327,
    "FIX": 50680,
    "\u0120dw": 50032,
    "WriteLine": 54115,
    "IMGIMGEBGZ": 420,
    "adt": 26989,
    "\u00e8\u00a1\u00a8": 37937,
    "\u0120correctly": 26557,
    "IMGIMGECHHZ": 4281,
    "<reserved12641>": 12645,
    "IMGIMGCBDIZ": 2142,
    "\u0120retailer": 37976,
    "ut": 16698,
    "\u0120calorie": 55271,
    "Combo": 62420,
    "Dick": 48077,
    "acles": 27787,
    "braska": 35084,
    "<sentinel:79>": 8277,
    "<reserved11657>": 11661,
    "\u0120commemor": 37489,
    "\u0120persona": 44046,
    "\u0120Parade": 44980,
    "\u0120wrt": 50096,
    "\u0120skepticism": 57463,
    "\u0120Volunteer": 46057,
    "ayan": 38747,
    "\u0120heroin": 42852,
    "IMGIMGFCCGZ": 5230,
    "MO": 24197,
    "trig": 64628,
    "\u0120Parish": 39097,
    "<reserved13817>": 13821,
    "\u0120legitimate": 30040,
    "luent": 45773,
    "inement": 41913,
    "\u0120hubs": 55487,
    "itian": 62355,
    "<reserved15123>": 15127,
    "\u00e4\u00ba\u012e": 43421,
    "finger": 54281,
    "\u0120Jahr": 31114,
    "\u0120flourish": 50952,
    "rz": 45820,
    "\u0120Premier": 28512,
    "above": 48111,
    "\u0120Muse": 45448,
    "<reserved12572>": 12576,
    "IMGIMGGDFAZ": 6354,
    "IMGIMGDCEHZ": 3251,
    "IMGIMGFHIAZ": 5784,
    "\u0120transcription": 37732,
    "<reserved12502>": 12506,
    "\u0120futile": 61207,
    "Flight": 62640,
    "Analy": 47788,
    "\u0120Sanctuary": 55045,
    "\u0120find": 17393,
    "\u0120internally": 41652,
    "\u0120broad": 20240,
    "IMGIMGJEIZ": 952,
    "\u0120lofty": 63446,
    "<reserved10118>": 10122,
    "coding": 60683,
    "rang": 20197,
    "\u0120operator": 25866,
    "\u0120stir": 29665,
    "\u0120smarter": 41617,
    "\u0120Neville": 61576,
    "\u0120specifics": 47632,
    "\u0120keinen": 62384,
    "\u0120Way": 22946,
    "\u00e1\u0125\u013a": 22236,
    "IMGIMGFEDIZ": 5442,
    "<reserved09733>": 9737,
    "\u0120handsome": 37393,
    "\u0120Schultz": 61893,
    "\u0120heraus": 61929,
    "\u0120turnaround": 54090,
    "\u0120cp": 64304,
    "\u0120Causes": 59935,
    "Scotland": 63605,
    "\u0120yelling": 42088,
    "\u0120regener": 35616,
    "Gun": 47452,
    "\u0120soup": 33522,
    "\u0120Tinipong": 58116,
    "ern": 17458,
    "\u00e7\u0136\u0141": 31481,
    "Claim": 56351,
    "Ship": 58637,
    "IMGIMGFEIAZ": 5484,
    "IMGIMGFJHJZ": 5983,
    "\u0120thousands": 21683,
    "IMGIMGDEHAZ": 3474,
    "bai": 42253,
    "\u0120violin": 45439,
    "IMGIMGCBDJZ": 2143,
    "numbers": 65098,
    "\u0120buffer": 27671,
    "IMGIMGCGGDZ": 2667,
    "\u00d0\u00b8\u00d0\u00bb\u00d1\u012e": 42666,
    "\u0120Clinton": 24234,
    "\u0120monde": 54747,
    "vol": 23508,
    "Monkey": 58557,
    "Authentication": 55798,
    "\u0120Guests": 52495,
    "\u0120Rue": 62117,
    "\u0120Judith": 53383,
    "\u0120retained": 35378,
    "\u0120obt": 63794,
    "\u0120receipts": 50542,
    "<reserved13679>": 13683,
    "conscious": 30339,
    "\u0120wen": 37315,
    "rika": 40669,
    "<reserved13028>": 13032,
    "\u0120wee": 52804,
    "<reserved14632>": 14636,
    "\u0120Roger": 30561,
    "IMGIMGDHBHZ": 3721,
    "oplast": 55195,
    "\u0120Dar": 23636,
    "\u00c3\u00aet": 61692,
    "\u0120powerful": 21197,
    "<reserved11856>": 11860,
    "<reserved09311>": 9315,
    "\u0120oscill": 35954,
    "hig": 45027,
    "assertEqual": 36346,
    "anka": 29920,
    "fixed": 42889,
    "list": 19950,
    "looking": 27007,
    "\u0120po\u00c4\u012f": 57037,
    "<reserved15716>": 15720,
    "\u0120brighter": 46758,
    "<reserved08959>": 8963,
    "\u0120Processing": 41636,
    "<reserved09427>": 9431,
    "IMGIMGGJCEZ": 6928,
    "<sentinel:183>": 8381,
    "\u00d0\u00b2\u00d0\u00b0\u00d0\u00bd\u00d0\u00bd\u00d1\u0131": 59979,
    "\u0120revered": 61260,
    "IMGIMGEIDZ": 487,
    "\u0120stresses": 43705,
    "\u0120unse": 38992,
    "\u00e0\u00bc\u012d": 31722,
    "\u00d1\u0123\u00d1\u0124\u00d0\u00b2\u00d0\u00be": 39858,
    "ilight": 38989,
    "Pear": 60508,
    "\u0120him": 17107,
    "\u0120resc": 32099,
    "lakan": 51875,
    "<sentinel:454>": 8652,
    "\u0120nucle": 21142,
    "thed": 58722,
    "\u0120Intelligent": 61834,
    "\u0120civ": 47787,
    "IMGIMGBCGZ": 130,
    "\u0120consist": 19881,
    "IMGIMGFJBGZ": 5920,
    "<reserved14850>": 14854,
    "\u0120discrete": 39418,
    "\u0120Emm": 51205,
    "\u0120Detection": 57688,
    "&": 16389,
    "\u0120cultures": 28031,
    "\u0120acknowledging": 48229,
    "Examples": 55372,
    "\u0120Eve": 28229,
    "<reserved15479>": 15483,
    "\u0120termination": 38700,
    "\u0120dest": 18992,
    "\u0120statue": 35105,
    "<reserved13806>": 13810,
    "IMGIMGHBIIZ": 7192,
    "<reserved14065>": 14069,
    "otom": 64572,
    "\u0120Hunting": 41098,
    "ijke": 59444,
    "\u00d7\u013b\u00d7\u0141": 48808,
    "Olymp": 59984,
    "\u0120exhibitions": 40837,
    "<reserved09472>": 9476,
    "<reserved11475>": 11479,
    "\u00d9\u0123": 21480,
    "\u0120\u00d0\u00a2": 27627,
    "IMGIMGCAAHZ": 2011,
    "\u0120Costs": 52185,
    "\u0120characterised": 59531,
    "\u00d0\u00bb\u00d1\u012e": 26640,
    "\u0120Yoga": 41770,
    "IMGIMGCAFEZ": 2058,
    "\u0120resilience": 40273,
    "IMGIMGEEEZ": 448,
    "Father": 44970,
    "graded": 40389,
    "IMGIMGIAIZ": 812,
    "<reserved09199>": 9203,
    "IMGIMGFACZ": 506,
    "IMGIMGFFFFZ": 5559,
    "\u0120runner": 34900,
    "\u0120obsessed": 38727,
    "Michigan": 56693,
    "<reserved14616>": 14620,
    "dem": 26354,
    "ugu": 46179,
    "\u0120Diseases": 49189,
    "DIS": 41964,
    "\u0120Moreno": 65337,
    "\u00e7\u00ae\u00a1": 58128,
    "Ring": 43163,
    "riage": 20910,
    "\u0120diminish": 54467,
    "Solid": 58456,
    "\u0120Bea": 45418,
    "IMGIMGFCCZ": 526,
    "questions": 37508,
    "\u0120delays": 34434,
    "\u0120kitty": 64243,
    "\u0120Chevy": 58938,
    "<reserved12814>": 12818,
    "<reserved10219>": 10223,
    "\u0120authority": 22645,
    "\u0120rebut": 64377,
    "\u0120dragon": 33110,
    "\u0120METHOD": 58780,
    "\u0120embodied": 53503,
    "lk": 60381,
    "\u0120Kry": 61729,
    "\u0120Does": 22583,
    "li": 17151,
    "\u0120Jenkins": 44102,
    "\u0120vicious": 42080,
    "IMGIMGCHHCZ": 2776,
    "<reserved09526>": 9530,
    "\u00e3\u0122": 17807,
    "\u0120MIC": 52551,
    "\u0120DEFAULT": 55727,
    "\u0120Client": 39265,
    "IMGIMGGBJDZ": 6197,
    "\u0120landscape": 25530,
    "\u0120reside": 43849,
    "\u0120inex": 59451,
    "\u0120leased": 57976,
    "<reserved08828>": 8832,
    "<reserved10112>": 10116,
    "IMGIMGGJIJZ": 6993,
    "\u0120consecut": 28968,
    "Created": 45137,
    "IMGIMGGECEZ": 6428,
    "\u00e0\u00b8\u0139": 31321,
    "brance": 47029,
    "agency": 61011,
    "\u0120Minist": 49781,
    "\u0120Vive": 62796,
    "\u0120Dirty": 56436,
    "<reserved12035>": 12039,
    "\u0120Geoff": 41782,
    "\u0120nga": 22430,
    "\u0120OF": 21256,
    "\u0120Lands": 44598,
    "Sales": 50588,
    "\u00d9\u0127\u00d8\u00b5\u00d8\u00a7\u00d8\u00af\u00d8\u00b1": 65105,
    "\u0120BO": 34870,
    "\u0120silent": 28186,
    "<reserved14530>": 14534,
    "<reserved16281>": 16285,
    "\u00d1\u0122": 17128,
    "ortium": 39477,
    "flying": 63554,
    "\u0120exemptions": 57422,
    "\u0120Sat": 25040,
    "icken": 23721,
    "\u0120axe": 50119,
    "armaceutical": 60729,
    "\u0120shoreline": 65060,
    "\u00e8\u00a8": 26802,
    "\u0120ersch": 61337,
    "IMGIMGFDIAZ": 5384,
    "\u0120prince": 37380,
    "irement": 38166,
    "ened": 19690,
    "\u0120Steps": 46791,
    "IMGIMGEAAEZ": 4008,
    "IMGIMGEBJZ": 423,
    "IMGIMGECEAZ": 4244,
    "\u0120zd": 49755,
    "<reserved12750>": 12754,
    "\u0120Rider": 55456,
    "\u0120\u00e0\u00b6": 35065,
    "\u00d1\u0124\u00d0\u00b0\u00d0\u00bd": 57907,
    "ipong": 57691,
    "\u00e0\u00b5\u012d": 53504,
    "JJ": 50137,
    "\u00e6\u00bc\u0136": 41921,
    "<reserved09015>": 9019,
    "\u0120contempt": 42188,
    "IMGIMGFJADZ": 5907,
    "<reserved12274>": 12278,
    "\u0120FBI": 27803,
    "\u0120sized": 37578,
    "\u0120THEIR": 64791,
    "\u0120Coun": 19720,
    "\u0120famous": 22066,
    "\u0120capturing": 39925,
    "\u0120puzz": 28349,
    "<reserved13910>": 13914,
    "\u00c5\u00a1t": 31823,
    "\u0120system": 17434,
    "KG": 56902,
    "\u0120at": 16767,
    "\u0120activities": 19811,
    "ewidth": 51782,
    "iance": 21976,
    "\u0120polynom": 41691,
    "oca": 27082,
    "\u0120Biggest": 59559,
    "\u0120apple": 33144,
    "\u0120pleasant": 31447,
    "IMGIMGHJDCZ": 7936,
    "IMGIMGBBIAZ": 1184,
    "<reserved14069>": 14073,
    "IMGIMGGFJIZ": 6602,
    "<reserved15921>": 15925,
    "Clock": 58763,
    "\u0120Wilderness": 60540,
    "IMGIMGFFEIZ": 5552,
    "\u0120measured": 23975,
    "\u0120respectable": 49988,
    "\u0120dal\u00c5\u00a1\u00c3\u0143": 54051,
    "charges": 56585,
    "IMGIMGDEBAZ": 3414,
    "\u0120zinc": 45480,
    "anies": 18645,
    "\u0120Publisher": 36892,
    "\u0120Amer": 37769,
    "\u0120Brow": 45466,
    "IMGIMGGEGHZ": 6471,
    "\u0120Sad": 29454,
    "\u0120belonging": 34396,
    "otypes": 33293,
    "\u0120Ski": 49457,
    "otional": 37011,
    "\u0120dictated": 59644,
    "<reserved15461>": 15465,
    "\u0120proves": 34627,
    "\u0120trader": 49570,
    "\u00e0\u00a6\u00a1": 53428,
    "\u0120email": 19624,
    "IMGIMGFGCBZ": 5625,
    "<reserved14135>": 14139,
    "<reserved16117>": 16121,
    "<reserved08930>": 8934,
    "\u0120bidder": 65504,
    "\u0120recording": 24025,
    "\u0120drinking": 24552,
    "<reserved14977>": 14981,
    "notification": 61685,
    "\u0120\u00d7": 17872,
    "IMGIMGDDHBZ": 3375,
    "\u0120g": 16695,
    "\u0120launches": 36323,
    "rets": 38924,
    "\u0120Parliamentary": 56426,
    "\u0120bottles": 33017,
    "\u00e0\u00b9": 19594,
    "\u0120vowed": 48230,
    "ming": 19509,
    "\u0120fals": 45771,
    "<reserved14324>": 14328,
    "cycl": 28501,
    "\u0120afforded": 49912,
    "eries": 25984,
    "\u0120dem": 17661,
    "\u0120president": 19279,
    "\u0120OP": 23907,
    "IMGIMGIADEZ": 8038,
    "<reserved12157>": 12161,
    "<reserved09064>": 9068,
    "\u0120Fut": 43200,
    "ueless": 53302,
    "<reserved09409>": 9413,
    "DAY": 41307,
    "\u0120Dynamics": 49377,
    "IMGIMGHGCCZ": 7626,
    "<reserved11154>": 11158,
    "IMGIMGCDIEZ": 2388,
    "<reserved13873>": 13877,
    "<reserved12460>": 12464,
    "<reserved10596>": 10600,
    "common": 26674,
    "IMGIMGBFGAZ": 1564,
    "piece": 29194,
    "\u0120Din": 44418,
    "IMGIMGFGCFZ": 5629,
    "\u0120Prosecut": 51323,
    "\u0120Tourism": 36976,
    "maid": 58596,
    "IMGIMGDJEEZ": 3948,
    "kal": 42376,
    "<reserved08794>": 8798,
    "\u0120monarchy": 57864,
    "Token": 26203,
    "\u0120essence": 31946,
    "lest": 31827,
    "\u0120predecess": 36017,
    "IMGIMGFAJHZ": 5101,
    "IMGIMGHCEDZ": 7247,
    "icity": 28301,
    "\u0120Tomorrow": 43048,
    "\u0120leveraging": 53992,
    "\u0120Oral": 49784,
    "\u0120Guid": 34111,
    "ADA": 45059,
    "IMGIMGBBIZ": 122,
    "\u0120maker": 32904,
    "\u0120Ibrahim": 51461,
    "\u0120deduction": 47254,
    "\u0120thinking": 19395,
    "<reserved13148>": 13152,
    "\u0120Modi": 37959,
    "\u0120straightforward": 34742,
    "<reserved13718>": 13722,
    "Mic": 37015,
    "hw": 52553,
    "<reserved11141>": 11145,
    "\u0120concentrations": 29879,
    "Dance": 61536,
    "\u0120failures": 34770,
    "IMGIMGCAGAZ": 2064,
    "\u0120gunshot": 64837,
    "Minister": 58815,
    "IMGIMGCHBGZ": 2720,
    "IMGIMGBJDEZ": 1938,
    "\u0120vol": 18340,
    "<reserved11487>": 11491,
    "\u00c3\u00b3": 18162,
    "\u0120refused": 25852,
    "\u0120Overview": 46554,
    "\u0120carve": 64281,
    "\u0120civilized": 60869,
    "\u0120tho": 29871,
    "<reserved10233>": 10237,
    "<reserved15660>": 15664,
    "\u0120distinctive": 35509,
    "<reserved08762>": 8766,
    "summer": 62713,
    "IMGIMGGHGJZ": 6773,
    "rule": 32246,
    "IMGIMGEFFDZ": 4557,
    "<reserved09255>": 9259,
    "<reserved14034>": 14038,
    "\u0120container": 27412,
    "\u0120polo": 58347,
    "IMGIMGHHHEZ": 7778,
    "<reserved09871>": 9875,
    "\u0120interesting": 19550,
    "<reserved11347>": 11351,
    "Font": 35841,
    "trust": 48424,
    "IMGIMGGEBJZ": 6423,
    "ava": 19549,
    "cert": 34438,
    "Care": 31832,
    "\u0120compress": 42454,
    "\u0120corner": 22481,
    "\u0120manipulated": 47870,
    "IMGIMGFEIJZ": 5493,
    "\u0120downloaded": 36212,
    "oho": 55955,
    "<reserved10889>": 10893,
    "lysis": 47424,
    "Expr": 40463,
    "\u0120kay": 40056,
    "IMGIMGGDGAZ": 6364,
    "anas": 37071,
    "\u0120migrant": 45291,
    "\u0120Riot": 55897,
    "IMGIMGEICZ": 486,
    "\u0120pian": 40281,
    "<reserved09991>": 9995,
    "\u0120Oz": 36950,
    "\u0120Conduct": 45936,
    "\u0120Shapiro": 59891,
    "\u0120HAVE": 39360,
    "Mouse": 39591,
    "\u0120view": 18058,
    "\u0120invitations": 63954,
    "\u0120sometimes": 19702,
    "requent": 64552,
    "\u0120\u00d0\u00bf\u00d0\u00b0\u00d1\u0122": 50784,
    "arson": 31836,
    "\u0120Figure": 25173,
    "\u0120undertaken": 36216,
    "<reserved15511>": 15515,
    "ATE": 22694,
    "\u0120Indonesia": 31140,
    "Attempt": 59176,
    "ikon": 64124,
    "\u00e2\u013b\u00aa": 65483,
    "IMGIMGDEFEZ": 3458,
    "arnation": 44907,
    "keiten": 50233,
    "\u0120immigrants": 29453,
    "<reserved13525>": 13529,
    "BOOL": 58100,
    "cole": 48783,
    "\u0120admire": 36211,
    "<reserved10327>": 10331,
    "anical": 50869,
    "\u0120mu": 29164,
    "\u0120voting": 25475,
    "ughter": 19836,
    "<reserved12429>": 12433,
    "ullah": 65012,
    "rella": 36919,
    "\u0120May": 17907,
    "\u0120pi\u00c3\u00b9": 39621,
    "\u00c3\u00bchrer": 51153,
    "\u00d0\u00a1\u00d0\u0142": 54028,
    "BR": 26062,
    "\u0120unlucky": 59702,
    "IMGIMGFICDZ": 5827,
    "irez": 54612,
    "\u0120dev": 18068,
    "<reserved16042>": 16046,
    "IMGIMGFIBCZ": 5816,
    "\u0120Nas": 34297,
    "IMGIMGJJFZ": 999,
    "\u0120lengths": 38485,
    "async": 40483,
    "\u0120pinpoint": 55037,
    "\u0120reluctance": 61691,
    "zem": 50111,
    "<reserved09556>": 9560,
    "\u00c4\u0135": 37587,
    "\u0120caval": 46799,
    "Gaming": 52011,
    "Pac": 36380,
    "\u0120stap": 38532,
    "<sentinel:86>": 8284,
    "skill": 52108,
    "Multiple": 48128,
    "\u0120sollen": 48004,
    "\u0120GPA": 43389,
    "\u0120inspiration": 26736,
    "\u0120touring": 38334,
    "\u0120Land": 21508,
    "omon": 32198,
    "\u0120Schneider": 49153,
    "utherford": 63483,
    "hti": 63343,
    "imp": 25286,
    "<reserved10789>": 10793,
    "Site": 42025,
    "\u0120opaque": 61089,
    "\u0120photographs": 28629,
    "<reserved10373>": 10377,
    "\u0120characterized": 29781,
    "without": 37069,
    "<reserved11251>": 11255,
    "\u0120baseline": 32320,
    "Bul": 48212,
    "IMGIMGBDFEZ": 1358,
    "\u0120rugby": 40471,
    "\u0120monk": 50062,
    "\u00c5\u0126": 32118,
    "won": 41234,
    "\u0120storyline": 41380,
    "IMGIMGEJDGZ": 4940,
    "Gram": 62051,
    "\u0120pool": 22341,
    "\u0120already": 18022,
    "TS": 21653,
    "IMGIMGDBIFZ": 3189,
    "\u0120Wid": 46187,
    "\u0120User": 29371,
    "IMGIMGIABDZ": 8017,
    "\u0120schemes": 32541,
    "\u0120foreground": 56573,
    "teil": 38284,
    "\u0120Opposition": 50218,
    "\u0120breath": 24557,
    "\u0120corrective": 62930,
    "\u0120unrest": 39827,
    "ocent": 53881,
    "\u0120fam": 17412,
    "\u0120reminded": 29231,
    "\u0120Rica": 45255,
    "\u0120decorating": 64253,
    "\u0120Cho": 31886,
    "\u0120methyl": 37183,
    "asis": 31071,
    "\u0120este": 31295,
    "IMGIMGDGGEZ": 3668,
    "\u0120million": 18115,
    "\u0120Communications": 29436,
    "\u00d5\u00a1\u00d5\u00b4": 39115,
    "\u0120Eas": 51540,
    "\u0120jerk": 41168,
    "\u0120invoke": 48817,
    "\u0120demographics": 50182,
    "<reserved09361>": 9365,
    "\u0120Prepared": 64233,
    "Maj": 62204,
    "\u0120Cec": 46248,
    "\u00c2\u00bc": 39620,
    "\u0120gauge": 33536,
    "IMGIMGBHBZ": 175,
    "<reserved15776>": 15780,
    "agent": 35113,
    "\u0120Wals": 40414,
    "mittedly": 63741,
    "fruit": 52434,
    "<reserved13016>": 13020,
    "<reserved14170>": 14174,
    "\u0120\u00ea\u00b2": 46669,
    "IMGIMGFAEGZ": 5050,
    "\u0120lads": 60560,
    "\u0120eats": 44971,
    "IMGIMGFHGZ": 580,
    "IMGIMGGADJZ": 6043,
    "IMGIMGEEHIZ": 4482,
    "\u00d8\u00b9\u00d8\u00af": 45419,
    "\u0120Expedition": 59453,
    "<reserved08852>": 8856,
    "\u0120compete": 26749,
    "IMGIMGHJJHZ": 8001,
    "<reserved16348>": 16352,
    "\u0120adjustments": 36878,
    "IMGIMGFEDJZ": 5443,
    "<reserved12093>": 12097,
    "NY": 22875,
    "waukee": 35005,
    "PV": 56301,
    "\u0120larger": 21036,
    "IMGIMGGCJJZ": 6303,
    "<reserved12706>": 12710,
    "afi": 44922,
    "\u0120absurd": 33281,
    "aug": 26366,
    "\u00d9\u012a\u00d8\u00b3": 37057,
    "integration": 53407,
    "\u0120developer": 28572,
    "EEP": 53385,
    "\u0120param": 20556,
    "\u0120t\u00e1\u00bb": 41093,
    "\u0120Haus": 44143,
    "Active": 33889,
    "Discovery": 62682,
    "\u0120waterproof": 61376,
    "personal": 37641,
    "<reserved12364>": 12368,
    "\u0120scam": 35724,
    "IMGIMGBHGJZ": 1773,
    "lf": 63632,
    "products": 44399,
    "thumb": 48509,
    "includegraphics": 32398,
    "\u0120yy": 53344,
    "\u0120\u00d0\u013e": 23945,
    "\u0120render": 27472,
    "\u00d5\u00bd": 41183,
    "IMGIMGHHEFZ": 7749,
    "<reserved15695>": 15699,
    "actly": 33374,
    "\u0120Mund": 58877,
    "IMGIMGCDECZ": 2346,
    "IMGIMGCDGGZ": 2370,
    "\u0120lowest": 26572,
    "nered": 33353,
    "\u0120aud": 18966,
    "nick": 34521,
    "\u0120arter": 37991,
    "\u0120masterpiece": 44101,
    "<sentinel:252>": 8450,
    "Fashion": 64052,
    "rendered": 47048,
    "iron": 17994,
    "\u0120takes": 19198,
    "\u0120Norton": 46975,
    "oot": 18351,
    "<reserved14844>": 14848,
    "\u0120\u00d0\u00bb": 25648,
    "IMGIMGDHEDZ": 3747,
    "\u0120Franch": 54856,
    "\u00c3\u0143as": 49292,
    "\u0120I": 16687,
    "\u0120forma": 43157,
    "\u0120Stay": 32863,
    "\u0120guerra": 59789,
    "\u0120hor": 19259,
    "\u0120Tur": 21654,
    "IMGIMGEEFJZ": 4463,
    "pping": 20913,
    "\u0120pressured": 58496,
    "\u0120falsely": 54619,
    "IMGIMGDHIJZ": 3793,
    "\u0120percentage": 24101,
    "<reserved14432>": 14436,
    "\u00d9\u012c\u00d8\u00aa": 45362,
    "IMGIMGEHHFZ": 4779,
    "<reserved09618>": 9622,
    "IMGIMGHAEAZ": 7044,
    "<reserved11921>": 11925,
    "BD": 28304,
    "\u0120Nest": 42518,
    "\u0120Nacht": 64491,
    "IMGIMGCDDIZ": 2342,
    "IMGIMGEBCEZ": 4128,
    "\u00e8\u0132": 50681,
    "Customer": 48291,
    "\u0120elic": 45856,
    "\u0120Youtube": 46932,
    "\u0120budding": 60981,
    "Internal": 37738,
    "<reserved15980>": 15984,
    "\u0120Attempt": 58798,
    "\u0120auction": 30546,
    "\u0120Osama": 62499,
    "\u0120\u00ea\u00b7\u00b8": 56619,
    "IMGIMGHCIAZ": 7284,
    "\u0120Food": 22943,
    "cheduler": 49799,
    "\u0120Vis": 22440,
    "\u0120aufge": 61831,
    "\u00cf\u0125\u00cf\u0126": 64897,
    "pix": 58338,
    "<reserved15501>": 15505,
    "\u0120stop": 18168,
    "\u0120someone": 18148,
    "talk": 35916,
    "Been": 58067,
    "IMGIMGHIEZ": 788,
    "IMGIMGHFDZ": 757,
    "\u0120mathemat": 27178,
    "IMGIMGHFFAZ": 7554,
    "uity": 30838,
    "<reserved13150>": 13154,
    "<reserved14684>": 14688,
    "IMGIMGBAIFZ": 1089,
    "\u0120Copa": 63763,
    "<sentinel:426>": 8624,
    "\u0120Exp": 26679,
    "\u0120hil": 29467,
    "NT": 24726,
    "IMGIMGCFFBZ": 2555,
    "\u0120Dialogue": 62494,
    "\u0120za": 26215,
    "owered": 28487,
    "cala": 61057,
    "logist": 64758,
    "fix": 29684,
    "<reserved12277>": 12281,
    "\u0120Nit": 48253,
    "\u0120darkness": 29629,
    "\u00eb\u012e\u0122": 50316,
    "\u0120Hospitals": 53399,
    "IMGIMGEGICZ": 4686,
    "finished": 57002,
    "weit": 58069,
    "\u0120creepy": 38329,
    "Same": 38888,
    "\u0120praises": 60335,
    "IMGIMGFHDZ": 577,
    "<reserved11392>": 11396,
    "\u0120moss": 58491,
    "Layout": 28192,
    "IMGIMGEDIZ": 442,
    "IMGIMGEGDFZ": 4639,
    "\u0120Database": 39099,
    "UMP": 51051,
    "\u0120jour": 39906,
    "\u0120absence": 25739,
    "\u00d0\u00bb\u00d0\u00b5": 31389,
    "\u0120Sequence": 63799,
    "\u0120theat": 36192,
    "\u0120Filip": 39536,
    "IMGIMGDBBIZ": 3122,
    "<reserved11107>": 11111,
    "itz": 20314,
    "\u0120elimination": 40598,
    "odynamics": 55677,
    "loma": 36615,
    "speed": 30321,
    "Food": 37888,
    "IMGIMGFGJIZ": 5702,
    "IMGIMGBCDEZ": 1238,
    "Price": 39234,
    "\u0120SAP": 47643,
    "IMGIMGBAAGZ": 1010,
    "IMGIMGEICBZ": 4825,
    "\u0120documentary": 27900,
    "\u0120prescription": 31778,
    "\u0120kar": 39442,
    "\u0120sleepy": 58333,
    "IMGIMGEBFHZ": 4161,
    "\u0120Never": 24117,
    "orted": 24554,
    "\u0120embark": 37035,
    "ono": 32424,
    "ensed": 25639,
    "Age": 42432,
    "\u0120guerr": 63634,
    "models": 33117,
    "ARY": 31026,
    "\u0120overtime": 38186,
    "\u0120rainfall": 42686,
    "\u0120calendars": 65479,
    "\u0120Keys": 44185,
    "ips": 18719,
    "\u0120slated": 45886,
    "xc": 30021,
    "\u0120moons": 58659,
    "IMGIMGHAEGZ": 7050,
    "ulf": 20719,
    "\u0120embarked": 54559,
    "\u00d9\u012a\u00d8\u00a8": 45033,
    "IMGIMGCDIDZ": 2387,
    "<reserved09890>": 9894,
    "\u0120ration": 60230,
    "\u0120mesmer": 58538,
    "\u0120Kh": 25988,
    "\u0120Midland": 64951,
    "upon": 48704,
    "\u0120Fer": 33198,
    "<reserved09594>": 9598,
    "rib": 17273,
    "oday": 20576,
    "enth": 24854,
    "\u0120Welfare": 46622,
    "<reserved12450>": 12454,
    "\u0120Brandon": 36218,
    "focused": 41513,
    "IB": 24676,
    "sembly": 22343,
    "\u0120perseverance": 60443,
    "\u00d0\u00b5\u00d0\u00b4": 23170,
    "\u0120PowerPoint": 65132,
    "\u00d0\u00bc\u00d0\u00b5\u00d1\u0122\u00d0\u00b8": 43795,
    "\u0120suitable": 25105,
    "\u0120unique": 19857,
    "inct": 21303,
    "AUTH": 63641,
    "\u0120swings": 48681,
    "\u0120Gabri": 52841,
    "\u0120Organic": 47614,
    "\u0120HQ": 49262,
    "\u0120batch": 32895,
    "\u00d2\u00af": 33026,
    "\u0120onset": 37073,
    "CH": 20260,
    "\u0120landscapes": 40877,
    "\u0120nothing": 18530,
    "\u0120OL": 59432,
    "\u0120Something": 29575,
    "Label": 27688,
    "\u0120graphics": 29342,
    "IMGIMGDBABZ": 3105,
    "\u0120\u00d0\u00b8\u00d0\u00bc": 45301,
    "IMGIMGDAIBZ": 3085,
    "\u0120bike": 24649,
    "\u0120freeway": 63514,
    "IMGIMGCJDEZ": 2938,
    "<reserved16341>": 16345,
    "download": 46733,
    "\u0120Railway": 38300,
    "IMGIMGDEDGZ": 3440,
    "IMGIMGEFFCZ": 4556,
    "IMGIMGGHIJZ": 6793,
    "<sentinel:199>": 8397,
    "\u0120ces": 43850,
    "opters": 46192,
    "\u00e1\u0140": 21954,
    "IMGIMGDHIEZ": 3788,
    "IMGIMGEHIIZ": 4792,
    "\u0120bapt": 34816,
    "\u0120takeover": 49972,
    "\u00d1\u0124\u00d0\u00be\u00d0\u00b2": 54207,
    "\u00e4\u00bd": 22614,
    "arg": 21485,
    "\u0120depict": 38425,
    "\u0120Adoles": 64109,
    "\u0120Vor": 30857,
    "\u0120sailors": 50665,
    "<reserved15269>": 15273,
    "\u0120axis": 29722,
    "ODUCT": 50397,
    "\u0120kh": 37110,
    "\u0120silhou": 57380,
    "IMGIMGDAEFZ": 3049,
    "\u00e7\u00b5\u0126": 48241,
    "Walker": 60534,
    "<reserved12345>": 12349,
    "flu": 32389,
    "IMGIMGBFGBZ": 1565,
    "\u00e3\u0123\u0135\u00e3\u0124\u012e": 62209,
    "\u00e5\u00b8\u0124": 32692,
    "\u0120joy": 24017,
    "Operations": 58897,
    "\u0120Aless": 61970,
    "\u0120Agr": 28357,
    "links": 42085,
    "\u0120Huang": 53800,
    "\u0120clones": 53055,
    "\u0120oct": 34307,
    "\u0120cement": 35806,
    "\u0120Moines": 58796,
    "want": 46868,
    "\u0120Pain": 31494,
    "\u00b5": 16497,
    "\u0120Patriot": 54219,
    "<reserved14982>": 14986,
    "\u0120elim": 22930,
    "\u0120reminder": 32033,
    "\u0120disagre": 35990,
    "\u0120Address": 38445,
    "\u0120Evaluation": 42185,
    "\u0120descent": 38914,
    "aufen": 54224,
    "IMGIMGCBHEZ": 2178,
    "\u0120remark": 22475,
    "arashtra": 49991,
    "uously": 49489,
    "IMGIMGFIJZ": 593,
    "IMGIMGGCEIZ": 6252,
    "IMGIMGCDGFZ": 2369,
    "ipation": 58051,
    "\u0120Dominican": 49870,
    "\u0120Imm": 28166,
    "zw": 39344,
    "\u0120thirst": 42900,
    "sylvania": 25899,
    "IMGIMGBGDBZ": 1635,
    "require": 27467,
    "ructive": 36151,
    "ferential": 52071,
    "IMGIMGHHIDZ": 7787,
    "\u0120Huntington": 53103,
    "\u0120unfolded": 61473,
    "<reserved15544>": 15548,
    "rant": 23352,
    "\u0120Suzuki": 53839,
    "\u0120Assange": 61272,
    "arming": 35339,
    "\u0120TOP": 53808,
    "\u0120researched": 45251,
    "oud": 18522,
    "\u0120Geek": 65125,
    "\u0120educational": 23603,
    "<reserved13564>": 13568,
    "IMGIMGGFFEZ": 6558,
    "\u0120Holmes": 36815,
    "IMGIMGEECFZ": 4429,
    "QQ": 55633,
    "IMGIMGCGFGZ": 2660,
    "IMGIMGHADHZ": 7041,
    "\u0120Frame": 54457,
    "\u00e1\u00ba\u00a5": 38261,
    "\u0120wiped": 41831,
    "\u0120bids": 47493,
    "<sentinel:137>": 8335,
    "<reserved11781>": 11785,
    "Given": 33661,
    "\u0120herself": 21928,
    "\u0120Kun": 34514,
    "<reserved10956>": 10960,
    "lyssa": 65308,
    "IMGIMGFECCZ": 5426,
    "igo": 30279,
    "\u0120\u00e0\u00a4\u00b8": 31403,
    "\u0120iterator": 62875,
    "\u00d0\u00bb\u00d0\u00b0\u00d0\u00bd": 49051,
    "<reserved15615>": 15619,
    "RU": 42257,
    "puts": 63701,
    "\u0120Leone": 52462,
    "\u0120refusing": 38115,
    "\u0120Shoes": 63598,
    "voice": 42960,
    "\u0120Cou": 36129,
    "\u0120sights": 39082,
    "IMGIMGEDHHZ": 4381,
    "\u0120wellness": 39557,
    "IMGIMGFHJAZ": 5794,
    "\u0120healing": 26891,
    "atian": 54166,
    "IMGIMGCFFIZ": 2562,
    "\u0120Networking": 57194,
    "azure": 58308,
    "IMGIMGDACFZ": 3029,
    "\u0120Jacob": 28742,
    "<reserved12958>": 12962,
    "\u0120Pit": 38913,
    "\u0120richness": 58560,
    "\u0120carbonate": 64204,
    "\u0120Foot": 25771,
    "uine": 24583,
    "\u00e9\u013c": 31574,
    "eches": 38458,
    "IMGIMGDBHEZ": 3178,
    "washed": 65164,
    "upid": 22114,
    "\u0120coast": 22784,
    "<reserved16271>": 16275,
    "<reserved12854>": 12858,
    "western": 30599,
    "juven": 57190,
    "\u0120dressed": 29649,
    "\u0120Acquisition": 54486,
    "\u0120repeated": 23517,
    "\u0120Thatcher": 58999,
    "IMGIMGGHBBZ": 6715,
    "\u0120philosophical": 37329,
    "\u0120recognize": 24238,
    "\u0120\u00d8\u00a7\u00d8\u00b2": 39471,
    "5": 16404,
    "\u0120exploited": 46385,
    "tb": 46810,
    "IMGIMGCHBDZ": 2717,
    "\u00e8\u00a5": 37766,
    "\u0120odd": 24461,
    "\u0120Intel": 33695,
    "\u0120resh": 49635,
    "IMGIMGDAJDZ": 3097,
    "IMGIMGDHHFZ": 3779,
    "ottages": 64900,
    "\u0120lonely": 36414,
    "\u0120originally": 23644,
    "\u00d1\u0122\u00d0\u00be\u00d0\u00bf": 48370,
    "\u0120Becker": 54784,
    "<reserved13760>": 13764,
    "\u0120outside": 19067,
    "oub": 23041,
    "\u0120Serbia": 44959,
    "xygen": 26569,
    "<reserved15387>": 15391,
    "\u0120December": 19293,
    "repos": 50864,
    "<reserved08981>": 8985,
    "\u0120Athen": 51649,
    "Launch": 62336,
    "estrian": 63366,
    "IMGIMGFIIDZ": 5887,
    "athlon": 53155,
    "\u00d0\u00bd\u00d0\u00b8": 20083,
    "\u0120reddit": 31373,
    "IMGIMGGFJEZ": 6598,
    "\u0120sorting": 44419,
    "\u00e9\u00a7\u0127": 49989,
    "IMGIMGGHIAZ": 6784,
    "\u0120Abr": 38980,
    "boxes": 48534,
    "rs": 19404,
    "\u0120compensation": 26505,
    "Ws": 55687,
    "\u0120Goldberg": 55710,
    "Room": 50967,
    "\u0120even": 17199,
    "\u0120rating": 21731,
    "\u0120estimates": 25500,
    "\u0120whisk": 42244,
    "Ret": 23316,
    "IMGIMGGCCZ": 626,
    "<reserved13665>": 13669,
    "geoning": 61390,
    "aper": 21201,
    "der": 16896,
    "False": 27433,
    "\u0120aura": 52148,
    "<reserved12885>": 12889,
    "\u0120ASP": 53077,
    "oran": 55402,
    "\u0120Cruz": 32221,
    "\u00e0\u00ab\u0122": 53770,
    "CLE": 48457,
    "\u0120interference": 33384,
    "\u0120knew": 19324,
    "\u0120\u00d7\u00a8\u00d7": 49519,
    "IMGIMGIHCZ": 876,
    "Blu": 56258,
    "how": 20868,
    "MAC": 59857,
    "Bang": 52801,
    "\u0120chose": 24494,
    "\u00e1\u00b1": 27404,
    "\u0120Sanders": 31677,
    "\u0120Quarterly": 52288,
    "<reserved09442>": 9446,
    "\u0120harms": 65049,
    "\u0120Too": 29133,
    "\u00e9\u0138\u0122": 59504,
    "\u0120studying": 26144,
    "<reserved13384>": 13388,
    "<reserved14487>": 14491,
    "\u0120decides": 31699,
    "\u0120Infantry": 49401,
    "\u0120pobla": 65045,
    "\u0120cryptocurrency": 40648,
    "IMGIMGDEJIZ": 3502,
    "cy": 17288,
    "<reserved11611>": 11615,
    "\u0120Indo": 57632,
    "\u0120genetics": 44402,
    "ographers": 50360,
    "<reserved14322>": 14326,
    "\u0120illeg": 33833,
    "Mag": 29826,
    "IMGIMGEECJZ": 4433,
    "IMGIMGJJDZ": 997,
    "\u0120McC": 23843,
    "IMGIMGFCFIZ": 5262,
    "esity": 31464,
    "\u0120rotational": 57894,
    "\u0120Deer": 51028,
    "<reserved10800>": 10804,
    "\u0120geh\u00c3\u00b6": 50480,
    "\u0120Vu": 49916,
    "\u00cf\u012e\u00cf\u0124": 61133,
    "\u0120Towers": 54647,
    "\u0120Plenty": 58206,
    "\u00cc\u012f": 59180,
    "\u0120divers": 28525,
    "rape": 25482,
    "\u0120tell": 17921,
    "allah": 56118,
    "crap": 65348,
    "IMGIMGDHDIZ": 3742,
    "\u0120characteristics": 24319,
    "phys": 49005,
    "IMGIMGHFBBZ": 7515,
    "IMGIMGGDJZ": 643,
    "<reserved11368>": 11372,
    "<reserved12430>": 12434,
    "\u0120veget": 24044,
    "\u0120Sr": 35515,
    "\u0120Dylan": 37719,
    "\u0120Jin": 40084,
    "\u00e5\u0126": 47451,
    "j\u00c4\u0127": 57555,
    "IMGIMGEEAHZ": 4411,
    "Teaching": 64326,
    "<reserved12730>": 12734,
    "\u0120grid": 27679,
    "ipple": 46689,
    "birds": 46134,
    "\u0120distributor": 48096,
    "<reserved11673>": 11677,
    "Hit": 44316,
    "Flo": 52603,
    "IMGIMGHIJDZ": 7897,
    "\u0120Dwight": 54769,
    "<reserved16091>": 16095,
    "MENTS": 60522,
    "ATES": 51650,
    "\u0120editions": 43150,
    "idepress": 52446,
    "\u0120Lit": 35877,
    "<reserved11151>": 11155,
    "\u0120Taste": 59648,
    "defer": 54209,
    "\u0120telesc": 40855,
    "<reserved15997>": 16001,
    "<reserved16340>": 16344,
    "asio": 57890,
    "\u0120streng": 20021,
    "\u0120Hamas": 41871,
    "IMGIMGHCFGZ": 7260,
    "\u0120skirt": 45360,
    "<reserved15148>": 15152,
    "\u0120Coronavirus": 56935,
    "IMGIMGBDBZ": 135,
    "\u0120Protest": 33344,
    "Morning": 60527,
    "<reserved08879>": 8883,
    "\u0120regulating": 44889,
    "<reserved13317>": 13321,
    "\u0120aberr": 56988,
    "\u0120wow": 36821,
    "\u0120unbearable": 63671,
    "\u0120nicotine": 54764,
    "<reserved15435>": 15439,
    "\u0120fractional": 61630,
    "FIN": 42613,
    "\u0120coughing": 63104,
    "\u0120bite": 31828,
    "Stack": 31980,
    "\u0120streets": 24058,
    "deen": 47012,
    "\u0120subscription": 31500,
    "fers": 29742,
    "\u0120vow": 46793,
    "<reserved11666>": 11670,
    "\u0120Coron": 42341,
    "IMGIMGCFFGZ": 2560,
    "bean": 27879,
    "Liter": 37313,
    "NH": 43055,
    "IMGIMGFAGDZ": 5067,
    "<reserved16368>": 16372,
    "\u0120Jr": 24538,
    "viation": 26091,
    "IMGIMGDDJCZ": 3396,
    "\u0120styl": 38154,
    "\u0120Pixel": 49698,
    "\u0120due": 18443,
    "\u0120specifically": 22365,
    "azzi": 62576,
    "<reserved13897>": 13901,
    "\u00d0\u00b4\u00d1\u012d": 36441,
    "\u0120Dry": 44676,
    "PL": 23004,
    "\u0120Crimson": 58132,
    "\u0120Dave": 26990,
    "\u0120Status": 38396,
    "\u0120everything": 18531,
    "\u0120riding": 27325,
    "Different": 48152,
    "validation": 48076,
    "<reserved14550>": 14554,
    "\u0120tweak": 58230,
    "IMGIMGBADIZ": 1042,
    "\u0120strip": 30563,
    "\u0120instruct": 25407,
    "akis": 48369,
    "berries": 40410,
    "IMGIMGHAHJZ": 7083,
    "\u0120infinitely": 52165,
    "\u0120precursor": 48747,
    "\u0120Benefits": 38472,
    "<reserved09750>": 9754,
    "\u0120liv": 31650,
    "Ter": 39772,
    "IMGIMGCHBEZ": 2718,
    "\u0120Illum": 59454,
    "Distribution": 59008,
    "\u0120Canton": 60793,
    "Vict": 37126,
    "\u0120Remove": 42326,
    "\u0120leaders": 19224,
    "zent": 28852,
    "IMGIMGCJAFZ": 2909,
    "\u0120statutes": 50705,
    "IMGIMGGGBHZ": 6621,
    "ksi": 46206,
    "imum": 19548,
    "<reserved14027>": 14031,
    "\u0120Analysis": 26869,
    "\u0120\u00c3\u00ba": 27950,
    "\u0120fairly": 23670,
    "\u0120everyday": 25801,
    "\u0120expans": 39205,
    "\u0120humorous": 49215,
    "\u0120adip": 49238,
    "\u0120Buckingham": 57113,
    "IMGIMGFCIIZ": 5292,
    "\u0120showed": 20332,
    "\u0120Blo": 22800,
    "Sample": 44628,
    "\u0120Ways": 38253,
    "IMGIMGBBAEZ": 1108,
    "<reserved09856>": 9860,
    "<reserved14070>": 14074,
    "amber": 23749,
    "\u0120betrayal": 51630,
    "<reserved16082>": 16086,
    "mess": 57780,
    "KT": 45537,
    "\u0120carefully": 25289,
    "it\u00c3\u00a4": 48066,
    "IMGIMGDFFGZ": 3560,
    "\u0120Palm": 34685,
    "IMGIMGHGBAZ": 7614,
    "IMGIMGGDCEZ": 6328,
    "\u00e5\u0132\u0133": 44031,
    "\u0120Marina": 46045,
    "\u00e7\u00a7\u00b0": 55386,
    "\u00aa\u00d7": 30529,
    "\u0120Coffee": 38361,
    "\u0120reflecting": 35846,
    "\u0120vein": 40109,
    "\u00d1\u0125\u00d1\u0129": 40238,
    "<reserved14552>": 14556,
    "\u00cc\u0123": 41853,
    "\u0120gender": 23324,
    "your": 28974,
    "ementia": 34349,
    "\u0120Providing": 63713,
    "obi": 31153,
    "\u0120statistics": 26204,
    "music": 39521,
    "\u0120bumps": 52630,
    "IMGIMGFJGFZ": 5969,
    "Details": 37037,
    "ples": 18716,
    "InputStream": 44828,
    "\u0120\u00d8\u00aa\u00d8\u0143": 55073,
    "IMGIMGFFFBZ": 5555,
    "Tiger": 59949,
    "IMGIMGECEDZ": 4247,
    "if": 16736,
    "\u0120PLAY": 56744,
    "you": 22225,
    "<reserved15843>": 15847,
    "\u0120Kolkata": 59829,
    "acher": 18974,
    "\u0120four": 17910,
    "agen": 23315,
    "\u0120sehr": 38315,
    "<reserved15649>": 15653,
    "arning": 19192,
    "IMGIMGFIFJZ": 5863,
    "JO": 49464,
    "<sentinel:292>": 8490,
    "<reserved11267>": 11271,
    "IMGIMGHIAGZ": 7810,
    "\u0120vom": 27820,
    "\u0120Nom": 38683,
    "ience": 19427,
    "ails": 21335,
    "nab": 25744,
    "official": 47189,
    "\u0120deviations": 57635,
    "\u0120retire": 23613,
    "\u0120jog": 43628,
    "\u0120Assist": 57242,
    "Sweet": 47017,
    "\u0120damit": 39786,
    "comments": 36900,
    "IMGIMGFIBIZ": 5822,
    "\u0120wild": 20909,
    "<reserved10535>": 10539,
    "<reserved11898>": 11902,
    "\u0120girlfriend": 27685,
    "\u0120molding": 64088,
    "\u0120saved": 24367,
    "\u0120whoever": 35064,
    "RS": 23610,
    "\u0120critic": 22003,
    "fic": 18363,
    "\u0120Test": 21808,
    "lucky": 47241,
    "BLIC": 54552,
    "everyone": 62803,
    "IMGIMGCBDFZ": 2139,
    "IMGIMGGGCHZ": 6631,
    "\u0120distributions": 36571,
    "\u00e9\u0137\u00b7": 36888,
    "IMGIMGGDIZ": 642,
    "<reserved10730>": 10734,
    "<reserved09211>": 9215,
    "ulous": 23092,
    "IMGIMGGGEDZ": 6647,
    "\u0120mund": 44061,
    "\u0120Pirate": 64206,
    "\u0120resur": 34044,
    "\u00e1\u0125\u0132\u00e1\u0125\u00a1": 62325,
    "<reserved16178>": 16182,
    "<reserved13953>": 13957,
    "\u0120culp": 47151,
    "\u0120sei": 30738,
    "\u0120Channel": 28730,
    "\u0120Gu": 18569,
    "IMGIMGFCCDZ": 5227,
    "\u0120Result": 44477,
    "\u0120sand": 22677,
    "\u0120farewell": 51617,
    "\u00e0\u00b0\u00bf": 24076,
    "\u0120pinned": 53091,
    "IMGIMGFDGIZ": 5372,
    "\u0120Rapp": 60031,
    "\u0120metro": 37022,
    "mighty": 46513,
    "\u0120London": 19706,
    "uvre": 53499,
    "<reserved15328>": 15332,
    "qui": 61686,
    "imilar": 65370,
    "\u0120onto": 21396,
    "\u0120possibilities": 29422,
    "<reserved09983>": 9987,
    "IMGIMGIBGZ": 820,
    "<reserved15781>": 15785,
    "IMGIMGFFDZ": 557,
    "\u0120Sheldon": 61438,
    "\u0120encounter": 27214,
    "\u0120deported": 60889,
    "\u0120containing": 23858,
    "<reserved16187>": 16191,
    "\u0120coaches": 29570,
    "\u0120Life": 20851,
    "\u0120extravag": 57385,
    "\u013d\u00d7": 29860,
    "\u0120rain": 22444,
    "ian": 17060,
    "\u0120captured": 26757,
    "\u0120discourse": 38129,
    "\u0120recognizing": 39793,
    "\u0120Pull": 42941,
    "\u0120woke": 33560,
    "ambig": 48366,
    "\u0120roommate": 48354,
    "\u0120genius": 33404,
    "\u0120dissoci": 57058,
    "<reserved12899>": 12903,
    "\u0120Oste": 64810,
    "IMGIMGEAIIZ": 4092,
    "\u0120ethic": 49809,
    "IMGIMGGJBZ": 695,
    "IMGIMGBFDEZ": 1538,
    "\u00e3\u0125\u00bc": 20115,
    "\u0120penet": 31355,
    "<reserved09333>": 9337,
    "\u0120time": 17005,
    "\u0120Era": 43368,
    "Metrics": 55663,
    "dictionary": 64746,
    "weed": 40623,
    "sometimes": 47578,
    "\u00e7\u00be\u00a9": 58322,
    "\u0120Pack": 26626,
    "<reserved14238>": 14242,
    "<reserved14486>": 14490,
    "usage": 39464,
    "accessible": 54372,
    "\u00e0\u00b9\u0123\u00e0\u00b8\u00a5\u00e0\u00b8\u00b0": 57215,
    "<reserved11730>": 11734,
    "<reserved16202>": 16206,
    "platform": 40829,
    "\u0120leagues": 40841,
    "Credentials": 64714,
    "<reserved14479>": 14483,
    "\u00e3\u0125\u00a4": 62653,
    "\u0120ecosystem": 29718,
    "\u0120Mak": 36832,
    "\u0120BA": 35965,
    "\u0120enhancements": 56329,
    "\u0120som": 17275,
    "verse": 19665,
    "\u0120commissioned": 36403,
    "\u0120manifesto": 59618,
    "<reserved15768>": 15772,
    "Law": 32303,
    "<reserved16061>": 16065,
    "<reserved12444>": 12448,
    "\u0120misconduct": 41998,
    "zant": 47637,
    "\u0120Instagram": 26174,
    "\u0120state": 17731,
    "<reserved14768>": 14772,
    "\u0120Kern": 59305,
    "\u0120Sinn": 65156,
    "IMGIMGGEBDZ": 6417,
    "\u0120Sib": 61486,
    "\u0120affairs": 28269,
    "IMGIMGDDAIZ": 3312,
    "<reserved15039>": 15043,
    "<reserved13114>": 13118,
    "Flags": 39425,
    "esters": 48067,
    "Who": 23915,
    "\u0120Solomon": 40824,
    "\u0120blasting": 63864,
    "IMGIMGEHDDZ": 4737,
    "\u0120Whit": 29516,
    "<reserved09503>": 9507,
    "<reserved13147>": 13151,
    "\u0120towns": 28781,
    "IMGIMGJFAZ": 954,
    "\u0120perspectives": 33484,
    "Modal": 60909,
    "IMGIMGFCJBZ": 5295,
    "\u0120branding": 42358,
    "IMGIMGHBBJZ": 7123,
    "\u0120stamps": 45920,
    "\u0120aids": 44148,
    "\u0120Prote": 25299,
    "IMGIMGBHAGZ": 1710,
    "<reserved14970>": 14974,
    "\u0120sailing": 38821,
    "ucha": 60492,
    "\u0120forgetting": 45015,
    "Compiler": 53807,
    "\u0120Petra": 57341,
    "ppen": 60557,
    "<reserved11483>": 11487,
    "Therefore": 37068,
    "\u0120Administrator": 44726,
    "\u0120Dug": 55498,
    "browser": 45910,
    "\u00e0\u00a5\u0123": 31618,
    "<reserved09971>": 9975,
    "\u0120signific": 18465,
    "\u0120extensively": 37079,
    "IMGIMGHBCHZ": 7131,
    "\u0120worksh": 24311,
    "journal": 40976,
    "strong": 23650,
    "\u0120posted": 20786,
    "\u0120Am": 18235,
    "\u0120electronically": 50859,
    "IMGIMGBIDJZ": 1843,
    "<reserved12989>": 12993,
    "<reserved14377>": 14381,
    "IMGIMGHEHEZ": 7478,
    "ent": 16682,
    "\u0120\u00ec\u0137\u0126": 63119,
    "IMGIMGHDCIZ": 7332,
    "Reset": 56684,
    "IMGIMGEFICZ": 4586,
    "\u0120Recommend": 48415,
    "IMGIMGGBDHZ": 6141,
    "\u0120coached": 51741,
    "\u0120rejects": 53375,
    "IMGIMGEGIZ": 472,
    "\u0120mantra": 52488,
    "Marketing": 60796,
    "\u0120focal": 41345,
    "\u0120headset": 51134,
    "attr": 27427,
    "\u0120Telegraph": 44989,
    "\u0120douche": 58750,
    "\u0120Really": 28469,
    "isol": 49396,
    "IMGIMGHJJIZ": 8002,
    "that": 21484,
    "\u0120challenger": 61434,
    "bern": 46310,
    "\u0120Yan": 29825,
    "\u0120relaxation": 40644,
    "<reserved15903>": 15907,
    "Capture": 62934,
    "\u0120hesitate": 41788,
    "\u0120flat": 22415,
    "ili": 18799,
    "\u0120\u00d9\u0127\u00d8\u00b9": 41585,
    "\u0120\u00d0\u0128": 51936,
    "wei": 27230,
    "Peter": 33201,
    "$": 16387,
    "Comput": 39875,
    "aji": 40093,
    "IMGIMGGAJDZ": 6097,
    "\u0120typical": 23850,
    "craft": 24866,
    "IMGIMGFFAJZ": 5513,
    "\u0120dir": 32470,
    "\u0120sak": 43600,
    "\u0120continental": 47229,
    "\u0120Berkshire": 60403,
    "<sentinel:401>": 8599,
    "\u0120bede": 62379,
    "fetch": 40928,
    "Shut": 56141,
    "\u00d8\u00a8\u00d9\u0126": 48080,
    "\u0120minimally": 62160,
    "\u0120CIO": 58570,
    "between": 39130,
    "\u0120explore": 22597,
    "\u0120Walking": 39999,
    "\u0120Brian": 25888,
    "cous": 62328,
    "IMGIMGGAAJZ": 6013,
    "<sentinel:473>": 8671,
    "\u0120Society": 22016,
    "\u0120motel": 65055,
    "IMGIMGGAJEZ": 6098,
    "\u0120primaries": 59652,
    "<reserved08988>": 8992,
    "IMGIMGHHHGZ": 7780,
    "illy": 22171,
    "Monday": 37887,
    "\u0120Amar": 57594,
    "\u0120ins": 17399,
    "\u0120Cooperative": 57259,
    "IMGIMGHBHFZ": 7179,
    "thereum": 44384,
    "\u0120ui": 54610,
    "<reserved11401>": 11405,
    "<reserved10945>": 10949,
    "\u0120Myst": 31853,
    "immt": 54047,
    "\u0120newspaper": 25519,
    "\u0120prototype": 37507,
    "\u0120Elijah": 54732,
    "irus": 20823,
    "\u0120insane": 28775,
    "IMGIMGHFFZ": 759,
    "IMGIMGGFABZ": 6505,
    "<reserved11905>": 11909,
    "\u0120Cel": 35140,
    "mom": 36996,
    "objects": 43092,
    "\u0120slowing": 41680,
    "<reserved11467>": 11471,
    "disc": 40310,
    "\u0120Pitts": 30655,
    "\u0120limestone": 58532,
    "<reserved08865>": 8869,
    "\u0120Initiative": 34468,
    "\u00e6\u00a9\u0141": 42677,
    "benz": 58384,
    "IMGIMGBJIAZ": 1984,
    "dev": 24266,
    "IMGIMGFAGAZ": 5064,
    "pecting": 64846,
    "IMGIMGFBHIZ": 5182,
    "\u0120examples": 22879,
    "IMGIMGFDCDZ": 5327,
    "utch": 23719,
    "aceted": 61515,
    "\u0120federation": 62365,
    "IMGIMGCBHIZ": 2182,
    "Le": 19375,
    "<reserved09067>": 9071,
    "IMGIMGEGHHZ": 4681,
    "IMGIMGEDAHZ": 4311,
    "\u0120tedious": 50436,
    "application": 32260,
    "<reserved12808>": 12812,
    "\u0120Nguy": 54137,
    "<reserved14095>": 14099,
    "\u0120\u00d7\u013e": 42545,
    "December": 32015,
    "\u0120regression": 34765,
    "\u00c4\u0127": 23484,
    "\u0120individually": 34519,
    "\u0120arguably": 37153,
    "\u0120Heat": 35906,
    "\u0120m\u00c3\u00a9d": 58818,
    "cl": 16933,
    "<sentinel:87>": 8285,
    "<reserved11089>": 11093,
    "\u00a7\u00d7": 31203,
    "present": 35624,
    "\u0120lends": 60687,
    "\u0120youtube": 40284,
    "IMGIMGBBAHZ": 1111,
    "\u0120Ax": 40163,
    "\u0120junk": 34939,
    "\u0120Amendment": 30066,
    "listener": 53549,
    "<reserved09128>": 9132,
    "IMGIMGHDECZ": 7346,
    "IMGIMGCCCJZ": 2233,
    "IMGIMGFCIAZ": 5284,
    "burgh": 25524,
    "vari": 27666,
    "\u00d0\u00ba\u00d0\u00b5": 37439,
    "IMGIMGEIBBZ": 4815,
    "\u0120audible": 61955,
    "\u0120LSD": 64191,
    "igrants": 25326,
    "\u0120rubbish": 51041,
    "\u0120Choose": 43568,
    "\u0120shady": 53743,
    "\u0120Seek": 53915,
    "IMGIMGEFJFZ": 4599,
    "Env": 52002,
    "IMGIMGFJEDZ": 5947,
    "oscopy": 50054,
    "annab": 40336,
    "\u0120surrender": 37493,
    "inds": 47540,
    "IMGIMGBEEJZ": 1453,
    "\u0120Tex": 20496,
    "IMGIMGIAFJZ": 8063,
    "\u0120strikes": 30586,
    "osta": 34903,
    "\u0120Jungle": 57459,
    "IMGIMGEJCGZ": 4930,
    "\u0120guidelines": 25921,
    "\u00c3\u00a4hrend": 43079,
    "Eric": 42769,
    "\u0120castle": 33371,
    "IMGIMGHEJFZ": 7499,
    "\u0120yet": 18352,
    "<reserved11632>": 11636,
    "PA": 21101,
    "\u0120wood": 21135,
    "IMGIMGHHJCZ": 7796,
    "\u0120Operation": 35980,
    "\u0120fearless": 65325,
    "<reserved14761>": 14765,
    "ession": 19078,
    "ves": 17537,
    "ils": 19952,
    "IMGIMGECBHZ": 4221,
    "<reserved13624>": 13628,
    "\u0120mathematics": 34002,
    "<reserved15364>": 15368,
    "<reserved13730>": 13734,
    "\u0120low": 18229,
    "<reserved09014>": 9018,
    "\u0120drastic": 48645,
    "IMGIMGHJCEZ": 7928,
    "\u0120alteration": 55517,
    "\u00e5\u0132\u012f": 32521,
    "\u0120enlisted": 49993,
    "<reserved10979>": 10983,
    "\u0120rides": 34656,
    "cn": 30871,
    "\u0120precautions": 49140,
    "<reserved11334>": 11338,
    "REST": 61952,
    "\u0120\u00d8\u00a7\u00d9\u0126\u00d8\u00af": 53051,
    "Magn": 50239,
    "abend": 58127,
    "\u0120descriptor": 55128,
    "Station": 36237,
    "fony": 42996,
    "note": 29266,
    "<reserved13506>": 13510,
    "ridge": 31215,
    "<sentinel:364>": 8562,
    "\u0120campaigning": 49822,
    "\u0120Braun": 50597,
    "<reserved13180>": 13184,
    "\u0120urg": 26444,
    "\u0120f\u00c3\u00bcnf": 48482,
    "\u0120analogue": 60698,
    "\u0120desde": 48780,
    "vc": 39134,
    "Ohio": 51880,
    "IMGIMGGDHDZ": 6377,
    "<reserved10933>": 10937,
    "uer": 22168,
    "\u0120Model": 26712,
    "\u0120nad": 39329,
    "<reserved11747>": 11751,
    "Charles": 38897,
    "\u00d0\u00bd\u00d0\u00b8\u00d0\u00ba": 35007,
    "\u0120ducks": 57047,
    "IMGIMGCAGEZ": 2068,
    "\u0120ex": 16794,
    "\u0120wildfires": 64202,
    "iddled": 65088,
    "\u0120WO": 55087,
    "\u0120pen": 20145,
    "cache": 30418,
    "\u0120Linear": 60224,
    "Associated": 55963,
    "\u0120demon": 19856,
    "\u0120comfy": 64324,
    "<reserved13282>": 13286,
    "home": 26673,
    "IMGIMGBIGJZ": 1873,
    "\u0120DU": 58629,
    "\u00e4\u00bf\u00ae": 63412,
    "IMGIMGBBCCZ": 1126,
    "\u0120Cry": 30093,
    "\u0120Ages": 43189,
    "\u00e8\u0133": 45378,
    "onical": 48059,
    "orse": 25697,
    "\u0120Sandra": 46011,
    "Taylor": 47785,
    "\u0120teens": 31799,
    "separ": 41091,
    "\u0120Friend": 25657,
    "\u00c3\u0143m": 29491,
    "\u0120Eph": 58370,
    "xxxx": 44229,
    "IMGIMGHJBFZ": 7919,
    "IMGIMGDBAGZ": 3110,
    "blem": 27334,
    "<reserved12307>": 12311,
    "ificent": 34883,
    "ement": 17351,
    "<reserved12949>": 12953,
    "ep": 16934,
    "\u0120regulation": 26080,
    "\u0120eh": 40703,
    "\u0120jetzt": 40826,
    "\u0120Rex": 43575,
    "<reserved12383>": 12387,
    "Sha": 57802,
    "<reserved15078>": 15082,
    "\u0120liber": 22108,
    "\u0120famine": 58083,
    "\u0120mil": 18114,
    "\u0120arte": 46525,
    "<reserved15385>": 15389,
    "\u0120April": 18932,
    "Uh": 49834,
    "oxy": 32917,
    "\u0120TOD": 32256,
    "<reserved09551>": 9555,
    "\u00fc": 16568,
    "CAN": 55979,
    "\u0120warp": 61024,
    "IMGIMGFCCJZ": 5233,
    "<reserved11569>": 11573,
    "ibia": 51735,
    "\u0120Madonna": 52683,
    "\u0120Taxes": 59197,
    "<reserved16159>": 16163,
    "<reserved11643>": 11647,
    "\u0120moving": 20069,
    "<reserved11175>": 11179,
    "\u0120borrowed": 42667,
    "<reserved16170>": 16174,
    "\u0120archival": 61349,
    "\u0120Num": 37510,
    "\u0120Greene": 45315,
    "\u0120Saul": 47635,
    "\u0120separ": 19511,
    "\u0120w\u00c3\u00bcrden": 59678,
    "pas": 41901,
    "round": 20300,
    "itiveness": 46423,
    "\u0120Cluster": 57290,
    "\u0120men": 18102,
    "JECT": 38405,
    "IMGIMGCICCZ": 2826,
    "ouring": 43588,
    "quered": 47456,
    "IMGIMGHBHHZ": 7181,
    "edit": 27305,
    "itiz": 20107,
    "<reserved16147>": 16151,
    "IMGIMGCGHFZ": 2679,
    "hing": 18140,
    "uant": 31145,
    "\u0120mmol": 59354,
    "<reserved12434>": 12438,
    "\u0120representative": 25923,
    "\u0120n\u00c3\u00a4": 49561,
    "\u0120dress": 22799,
    "IMGIMGHCCAZ": 7224,
    "<reserved09707>": 9711,
    "\u0120ub": 31751,
    "<reserved14939>": 14943,
    "\u0120goth": 61991,
    "ear": 16842,
    "\u0120Director": 21068,
    "IMGIMGGBACZ": 6106,
    "\u0120Liu": 41657,
    "\u00e5\u012b\u012f": 35169,
    "Diagn": 42421,
    "\u0120XII": 59292,
    "IMGIMGHHJFZ": 7799,
    "\u0120god": 21275,
    "ricia": 37664,
    "\u0120Colleges": 47822,
    "\u0120grandmother": 31643,
    "\u0120Rotary": 57212,
    "\u0120careless": 62797,
    "IMGIMGEGHDZ": 4677,
    "<reserved10074>": 10078,
    "ciplinary": 33148,
    "brahim": 47081,
    "balanced": 47239,
    "stro": 63668,
    "\u0120exports": 31474,
    "\u0120Return": 25638,
    "\u0134": 16624,
    "IMGIMGCHHFZ": 2779,
    "\u0120Sleep": 35039,
    "\u0120Ducks": 62255,
    "\u0120Cardinals": 42438,
    "\u0120Highland": 47784,
    "<reserved16200>": 16204,
    "\u0120selbst": 39588,
    "\u0120veil": 53293,
    "\u0120harassed": 58089,
    "\u0120prescribe": 55168,
    "luc": 58663,
    "\u0120waitress": 65266,
    "\u0120\u00d8\u00af": 22400,
    "IMGIMGFJCCZ": 5926,
    "<reserved15674>": 15678,
    "Among": 33922,
    "\u0120referral": 43362,
    "IMGIMGGCDJZ": 6243,
    "IMGIMGCHHGZ": 2780,
    "<reserved13260>": 13264,
    "<reserved08955>": 8959,
    "<reserved12793>": 12797,
    "\u0120OB": 42993,
    "\u0120eggs": 27728,
    "\u0120male": 21966,
    "\u0120Everyone": 26775,
    "dj": 34590,
    "\u0120cert": 21074,
    "\u0120groundwater": 51145,
    "\u0120Atl": 22792,
    "Squ": 38139,
    "\u0120Gilles": 59362,
    "\u0120gad": 39039,
    "\u0120specially": 38468,
    "coming": 20656,
    "<reserved12010>": 12014,
    "<reserved15772>": 15776,
    "ewer": 38593,
    "<reserved14575>": 14579,
    "IMGIMGCJAEZ": 2908,
    "IMGIMGDHDFZ": 3739,
    "\u0120Combat": 47667,
    "IMGIMGFHIZ": 582,
    "IMGIMGECAFZ": 4209,
    "<reserved16069>": 16073,
    "\u0120skin": 20848,
    "<reserved12611>": 12615,
    "meric": 17452,
    "IMGIMGBGBBZ": 1615,
    "\u0120ha": 16766,
    "\u0120rewarding": 34861,
    "Selection": 39084,
    "<sentinel:350>": 8548,
    "<reserved13367>": 13371,
    "stri": 48026,
    "\u0120\u00e0\u00a4\u00a4": 48277,
    "ands": 18376,
    "\u0120hemisphere": 56319,
    "\u0120bombed": 63436,
    "bble": 57087,
    "\u0120Scientist": 54553,
    "\u0120rot": 22056,
    "\u0120Hast": 50530,
    "\u0120product": 17918,
    "Factory": 26983,
    "\u0120thoughtful": 37788,
    "\u0120Cannon": 53352,
    "\u0120Kinda": 58294,
    "ICES": 52483,
    "generation": 36399,
    "IMGIMGFJJDZ": 5997,
    "IMGIMGBBGBZ": 1165,
    "Semitism": 57956,
    "actic": 31893,
    "PDATE": 36419,
    "\u0120Conor": 61351,
    "\u0120institute": 40201,
    "IMGIMGHBEIZ": 7152,
    "\u0120restraining": 63058,
    "<reserved10818>": 10822,
    "squ": 31417,
    "<sentinel:40>": 8238,
    "rers": 38313,
    "\u0120socio": 42564,
    "<reserved15381>": 15385,
    "\u0120launcher": 61402,
    "\u0120condom": 63941,
    "\u0120stamp": 32227,
    "scape": 23320,
    "<reserved10547>": 10551,
    "\u0120layers": 27440,
    "acterium": 52856,
    "IMGIMGFFJGZ": 5600,
    "IMGIMGBHAFZ": 1709,
    "amb": 18559,
    "\u0120background": 21515,
    "\u0120forward": 19035,
    "Mid": 38330,
    "\u0120Experiment": 50251,
    "\u0120prevailed": 59987,
    "ivist": 52259,
    "<reserved11665>": 11669,
    "<reserved13412>": 13416,
    "\u0120vast": 23587,
    "\u0120spo": 26830,
    "\u0120distinguishing": 60427,
    "\u00e7\u00b4\u0126": 56707,
    "IMGIMGCBBBZ": 2115,
    "\u0120counters": 47659,
    "Return": 27681,
    "IFIC": 61088,
    "IPS": 63577,
    "it\u00c3\u0142": 39643,
    "\u0120reviews": 23446,
    "\u0120Cull": 51213,
    "\u0120Ohio": 24030,
    "\u0120Bald": 36297,
    "IMGIMGHDIZ": 742,
    "\u0120mention": 19344,
    "\u0120Stevie": 58438,
    "IMGIMGDAIIZ": 3092,
    "<sentinel:101>": 8299,
    "\u0120distributing": 50168,
    "\u0120Vul": 46150,
    "combe": 53914,
    "\u0120voiced": 48075,
    "\u0120Everest": 60605,
    "econom": 53826,
    "assets": 49662,
    "IMGIMGFHJGZ": 5800,
    "Manchester": 55793,
    "brother": 54782,
    "IMGIMGEFDBZ": 4535,
    "\u0120strategic": 24782,
    "EV": 34474,
    "IMGIMGEIFDZ": 4857,
    "<reserved14671>": 14675,
    "other": 17252,
    "\u0120deliberate": 41211,
    "\u0120Za": 49750,
    "\u0120geomet": 56512,
    "leh": 64293,
    "\u0120contraception": 61987,
    "IMGIMGGJCBZ": 6925,
    "\u00ce\u0143\u00cf\u0124": 59186,
    "\u0120preacher": 55040,
    "IMGIMGDGGBZ": 3665,
    "IMGIMGHEHCZ": 7476,
    "IMGIMGIGGZ": 870,
    "\u0120KR": 59232,
    "abyrinth": 57801,
    "<reserved11748>": 11752,
    "IMGIMGEIGFZ": 4869,
    "\u0120Fo": 43279,
    "<reserved15785>": 15789,
    "\u0120Monsters": 61128,
    "ppy": 35423,
    "<reserved15662>": 15666,
    "\u0120mediums": 64181,
    "Loc": 29081,
    "<reserved12559>": 12563,
    "IMGIMGFHBIZ": 5722,
    "cad": 49661,
    "\u00c5\u00a1\u00c3\u0143": 27737,
    "\u0120MX": 58546,
    "T": 16435,
    "IMGIMGFEGFZ": 5469,
    "<reserved11415>": 11419,
    "\u0120defective": 51916,
    "<reserved12325>": 12329,
    "\u00c3\u00a1rio": 61753,
    "\u0120airl": 63955,
    "\u0120binder": 62145,
    "oen": 25747,
    "Invalid": 34589,
    "\u0120committee": 23140,
    "\u0120streaming": 29027,
    "El": 22310,
    "\u0120seventeen": 53200,
    "\u0120Towards": 62253,
    "blatt": 64070,
    "IMGIMGBIJGZ": 1900,
    "\u0120Laur": 28011,
    "\u0120Polar": 43309,
    "IMGIMGCCDEZ": 2238,
    "\u0120orn": 40007,
    "IMGIMGCAJBZ": 2095,
    "\u0120enemy": 24028,
    "\u0120affiliation": 48717,
    "IMGIMGECCHZ": 4231,
    "immer": 30297,
    "\u0120preview": 35563,
    "iously": 24400,
    "psis": 62025,
    "unk": 18967,
    "ework": 21493,
    "<reserved08757>": 8761,
    "\u0120defending": 31619,
    "\u0120ne\u00c5\u00be": 55752,
    "\u0120Colon": 63665,
    "itis": 24957,
    "IMGIMGCCAHZ": 2211,
    "\u0120explo": 25789,
    "IMGIMGDEGCZ": 3466,
    "Constant": 47993,
    "IMGIMGFGGBZ": 5665,
    "\u0120dollars": 22313,
    "\u0120Hearts": 48113,
    "\u0120wakes": 55052,
    "\u0120Fifth": 40950,
    "CAC": 58035,
    "\u0120eager": 29689,
    "\u0120designate": 58833,
    "\u0120WoW": 63438,
    "\u0120Uses": 64496,
    "IMGIMGEFHAZ": 4574,
    "IMGIMGCDDCZ": 2336,
    "osaurs": 46018,
    "\u0120Idea": 50347,
    "IMGIMGBIICZ": 1886,
    "\u0120belong": 22366,
    "\u0120staging": 47616,
    "mm": 19932,
    "Start": 23846,
    "\u0120Influence": 56997,
    "\u0120define": 24560,
    "displaystyle": 44668,
    "\u0120diverse": 24366,
    "\u0120rooted": 38935,
    "<sentinel:266>": 8464,
    "\u0120caring": 30588,
    "\u0120wire": 23014,
    "IMGIMGCEEEZ": 2448,
    "IMGIMGGGCEZ": 6628,
    "\u0120uint": 35613,
    "\u0120murders": 41509,
    "\u0120fleet": 30730,
    "\u0120cortical": 58501,
    "\u0120Appro": 32816,
    "Length": 27834,
    "IMGIMGHFDBZ": 7535,
    "\u0120\u00d1\u0124\u00d0\u00b0\u00d0\u00ba\u00d0\u00b6\u00d0\u00b5": 53299,
    "<reserved14902>": 14906,
    "\u00e0\u00b1": 19738,
    "<reserved13275>": 13279,
    "<reserved09354>": 9358,
    "<reserved16167>": 16171,
    "\u00ec\u012d\u013e": 44861,
    "\u0120Train": 31706,
    "\u0120disappointed": 28206,
    "tr": 18178,
    "\u0120certainly": 20514,
    "Anne": 46599,
    "\u0120rewards": 31627,
    "IMGIMGEAACZ": 4006,
    "\u0120Xavier": 51563,
    "igan": 22022,
    "bles": 39851,
    "\u0120boil": 47000,
    "\u0120rocky": 45042,
    "\u0120bc": 41739,
    "\u0120wohl": 54686,
    "anium": 36795,
    "IMGIMGDEHFZ": 3479,
    "\u00d8\u00b5\u00d8\u00a7\u00d8\u00af\u00d8\u00b1": 63253,
    "\u0120assured": 32072,
    "\u0120spices": 52203,
    "\u0120salts": 55221,
    "by": 17770,
    "IMGIMGBAHHZ": 1081,
    "<reserved10545>": 10549,
    "\u00b1": 16493,
    "IMGIMGGEBBZ": 6415,
    "ulence": 43303,
    "IMGIMGDEGGZ": 3470,
    "\u0120scout": 48695,
    "\u0120Apply": 49263,
    "IMGIMGBEBZ": 145,
    "\u0120Free": 22666,
    "\u0120Essential": 50116,
    "remen": 58306,
    "IMGIMGHBDAZ": 7134,
    "IMGIMGCDGDZ": 2367,
    "YT": 46240,
    "<reserved09865>": 9869,
    "oco": 35054,
    "pty": 21471,
    "\u0120Butter": 41421,
    "\u0120horrible": 28017,
    "\u0120spherical": 52637,
    "IMGIMGEIHIZ": 4882,
    "\u0120Paolo": 63127,
    "\u00e0\u00b8\u00b2\u00e0\u00b8\u013b": 52400,
    "prof": 34860,
    "\u0120distract": 31058,
    "\u0120believed": 22816,
    "IMGIMGBEIEZ": 1488,
    "\u0120Top": 21850,
    "<reserved14015>": 14019,
    "\u00e7\u0142\u0136\u00e7\u00a9\u00b6": 59972,
    "\u00e1\u0125\u0136\u00e1\u0125\u013e": 61189,
    "rak": 33260,
    "\u0120moi": 54377,
    "\u0120spilled": 56300,
    "?": 16414,
    "IMGIMGGAACZ": 6006,
    "<reserved15070>": 15074,
    "soon": 46988,
    "flo": 44037,
    "\u0120architecture": 25401,
    "hui": 61514,
    "<reserved16279>": 16283,
    "\u0120Beach": 23621,
    "IMGIMGBGHHZ": 1681,
    "<reserved11109>": 11113,
    "\u0120prev": 26260,
    "\u00eb\u00b6": 45899,
    "<reserved12215>": 12219,
    "react": 38807,
    "IMGIMGCEGJZ": 2473,
    "<reserved13563>": 13567,
    "\u0120lump": 46653,
    "IMGIMGEHGZ": 480,
    "Hall": 43688,
    "<reserved12608>": 12612,
    "\u0120regulators": 37617,
    "annt": 39059,
    "\u0120relegated": 60510,
    "\u0120soft": 19009,
    "\u0120simulator": 55730,
    "<reserved12455>": 12459,
    "\u0120implantation": 63937,
    "H": 16423,
    "Alexander": 51378,
    "inker": 45977,
    "\u00e6\u012b\u012d": 38148,
    "\u0120LeBron": 52593,
    "Currency": 62637,
    "emen": 28868,
    "provider": 47546,
    "\u0120barrage": 64844,
    "IMGIMGCICAZ": 2824,
    "<reserved11830>": 11834,
    "IMGIMGGJJZ": 703,
    "\u00da\u00be": 37743,
    "OL": 19785,
    "\u0120defining": 33295,
    "IMGIMGDJZ": 43,
    "isance": 54933,
    "IMGIMGDADHZ": 3041,
    "\u0120observations": 28101,
    "\u0120elders": 46664,
    "\u0120Trend": 53449,
    "\u0120Kur": 33944,
    "IMGIMGEDBHZ": 4321,
    "<reserved15132>": 15136,
    "\u0120Found": 20724,
    "\u0120MW": 42115,
    "ocular": 52929,
    "\u0120repe": 20529,
    "\u0120Salt": 34348,
    "\u0120misuse": 52487,
    "\u0120yes": 19585,
    "IMGIMGCFACZ": 2506,
    "\u0120ves": 48981,
    "\u0120mounted": 31540,
    "inity": 23818,
    "\u0120Maced": 48624,
    "\u0120Gothic": 53454,
    "<reserved11017>": 11021,
    "\u0120vap": 54567,
    "\u0120prosecuted": 53178,
    "\u0120Bright": 34126,
    "\u0120gardens": 33068,
    "AB": 20709,
    "IMGIMGFJHFZ": 5979,
    "ARA": 51258,
    "\u0120Telecom": 56482,
    "ist": 16771,
    "\u0120ra": 17218,
    "\u00d0\u00be\u00d0": 17247,
    "\u0120running": 19264,
    "\u0120note": 20131,
    "\u0120coral": 47335,
    "IMGIMGFEAIZ": 5412,
    "\u0120employed": 25186,
    "\u0120naturally": 26370,
    "\u0120upvote": 45305,
    "Christmas": 47728,
    "\u0120exhaustion": 53147,
    "\u0120receptions": 65340,
    "<reserved09692>": 9696,
    "\u0120Larson": 59884,
    "IMGIMGBACDZ": 1027,
    "IMGIMGHDHCZ": 7376,
    "\u0120ca": 17658,
    "WV": 51150,
    "\u0120patio": 51658,
    "IMGIMGEDIJZ": 4393,
    "<reserved10176>": 10180,
    "<reserved12438>": 12442,
    "\u0120systematically": 47454,
    "posing": 48347,
    "\u0120Buddy": 51857,
    "\u0120meals": 28680,
    "\u00e4\u00ba\u012d": 34497,
    "IMGIMGEGDIZ": 4642,
    "\u0120incorrect": 30740,
    "\u0120\u00e2\u0138": 48193,
    "\u0120replica": 50275,
    "\u0120LSU": 54165,
    "\u00d1\u0123\u00d0\u00ba\u00d0\u00be\u00d0\u00b9": 33335,
    "trace": 43383,
    "IMGIMGBJBGZ": 1920,
    "NM": 49119,
    "Depending": 58934,
    "alogy": 49280,
    "EP": 25306,
    "athan": 23573,
    "inline": 47525,
    "IMGIMGCABJZ": 2023,
    "jt": 50808,
    "<reserved14429>": 14433,
    "<reserved13338>": 13342,
    "\u0120toxins": 51462,
    "\u0120Fact": 35471,
    "\u0120beginnings": 49171,
    "Opening": 55661,
    "\u0120Studio": 30334,
    "doors": 33820,
    "\u0120proponents": 61185,
    "<reserved12534>": 12538,
    "\u00e7\u00a8\u00ae": 59138,
    "\u00e3\u0124\u0134": 21244,
    "\u0120snow": 22514,
    "\u00c3\u00aancias": 63456,
    "IMGIMGEFHBZ": 4575,
    "\u00d0\u00b4\u00d0\u00b0\u00d1\u0122": 65100,
    "\u0120denounced": 62830,
    "alism": 50804,
    "\u0120hedge": 32004,
    "Nig": 54830,
    "\u0120consoles": 45668,
    "\u0120pall": 55369,
    "\u0120wreck": 40044,
    "\u0120reign": 31698,
    "LETE": 56042,
    "IMGIMGEFJAZ": 4594,
    "\u0120Depends": 50105,
    "IMGIMGIIFZ": 889,
    "\u0120meets": 26894,
    "\u0120TD": 34437,
    "\u0120colle": 21138,
    "\u0120passer": 58634,
    "oru": 53616,
    "iver": 18170,
    "\u0120distant": 31171,
    "\u0120Stanley": 31272,
    "park": 34505,
    "\u00d0\u00bd\u00d0\u00b5\u00d0\u00b9": 62620,
    "\u0120exhib": 21001,
    "\u0120flower": 29631,
    "<reserved12202>": 12206,
    "iser": 22537,
    "IMGIMGJDAZ": 934,
    "\u0120cf": 57178,
    "\u0120swit": 27956,
    "\u0120inst": 17344,
    "Commit": 46205,
    "<reserved11568>": 11572,
    "acons": 58259,
    "\u0120Desktop": 63105,
    "\u0120n\u00c3\u00ba": 59250,
    "Sch": 26197,
    "stairs": 32760,
    "\u00db\u0132": 54751,
    "\u0120round": 20011,
    "\u0120sublime": 60627,
    "\u0120occurrence": 35233,
    "IMGIMGBJEHZ": 1951,
    "stellen": 57796,
    "\u0120burden": 27422,
    "\u0120bi": 18783,
    "<reserved11698>": 11702,
    "\u0120\u00c5\u0142": 39041,
    "\u0120Rowe": 65270,
    "score": 41433,
    "\u0120\u00d0\u00b3\u00d0\u00be\u00d0\u00b4\u00d0\u00b0": 31803,
    "\u0120Geb": 38356,
    "Pi": 38328,
    "Circ": 42826,
    "helpers": 62226,
    "\u0120pione": 31772,
    "scient": 49014,
    "\u0120latest": 20120,
    "\u0120devastation": 59239,
    "swers": 50663,
    "\u0120footwear": 59488,
    "\u00d0\u00b5\u00d0\u00b2": 24981,
    "<reserved15032>": 15036,
    "<reserved15023>": 15027,
    "\u00e3\u0123\u013f": 33858,
    "\u0120architectures": 61553,
    "\u0120doubling": 50042,
    "abor": 18624,
    "<reserved11101>": 11105,
    "\u00d6\u0124": 22881,
    "\u0120\u00d1\u0131\u00d0\u00b2": 63326,
    "TL": 30468,
    "\u0120Chand": 37205,
    "<reserved12055>": 12059,
    "\u0120liberated": 64425,
    "isi\u00c3\u00b3n": 60682,
    "\u0120ges": 30848,
    "INO": 52217,
    "LINE": 35872,
    "\u0120frown": 41789,
    "\u0120crad": 57981,
    "win": 21326,
    "IMGIMGHIAHZ": 7811,
    "\u0120kids": 19347,
    "\u0120Jaguar": 58361,
    "\u0120nutrients": 37885,
    "IMGIMGBJFHZ": 1961,
    "ringing": 35279,
    "\u0120Proper": 62794,
    "\u00d8\u00b4": 22832,
    "IMGIMGCBEAZ": 2144,
    "\u0120outraged": 58726,
    "\u0120erh": 52024,
    "\u00d0\u00b6\u00d0\u00b8": 47470,
    "\u0120inmates": 41021,
    "ocument": 24995,
    "ICE": 26964,
    "<reserved11190>": 11194,
    "\u0120damaging": 37296,
    "IMGIMGGCCBZ": 6225,
    "\u0120Philosoph": 35038,
    "Michel": 44616,
    "\u0120thanking": 63076,
    "<reserved11768>": 11772,
    "chem": 23978,
    "\u0120Lod": 59757,
    "<reserved14109>": 14113,
    "\u0120K": 16908,
    "\u0120Llc": 64511,
    "etitive": 33263,
    "IMGIMGBIHGZ": 1880,
    "<reserved08964>": 8968,
    "<reserved13059>": 13063,
    "<reserved14128>": 14132,
    "<reserved09812>": 9816,
    "Traditional": 60654,
    "<reserved10916>": 10920,
    "\u0120\u00d9\u0127\u00d9\u0124\u00d8\u00a7\u00d9\u0126\u00d9\u0129": 62552,
    "\u0120complexes": 41013,
    "\u0120Stafford": 49560,
    "gh": 28535,
    "BC": 19634,
    "\u0120tied": 26268,
    "\u0120contrary": 30094,
    "\u0120promised": 27086,
    "<reserved10354>": 10358,
    "\u0120clim": 30230,
    "\u0120Tib": 34864,
    "bid": 27949,
    "<reserved11667>": 11671,
    "Unknown": 41879,
    "Arc": 52320,
    "\u0120Lecture": 53749,
    "\u0120UBS": 65061,
    "\u00ce\u00ae": 30299,
    "IMGIMGBJCCZ": 1926,
    "\u0120\u00d3\u00a9": 54005,
    "IMGIMGHCCHZ": 7231,
    "<reserved11344>": 11348,
    "\u0120achievements": 32937,
    "\u0120MER": 64824,
    "\u0120Pascal": 60387,
    "\u0120entreprene": 25094,
    "<reserved09084>": 9088,
    "\u0120aver": 27478,
    "IMGIMGCHEIZ": 2752,
    "lif": 49926,
    "<sentinel:406>": 8604,
    "Connection": 30890,
    "\u0120Quite": 46439,
    "PU": 48511,
    "parameters": 41808,
    "apis": 55290,
    "\u00d0\u00bc\u00d0\u00b0\u00d1\u0124": 54598,
    "<reserved12889>": 12893,
    "\u0120Marcel": 56424,
    "IMGIMGFJHEZ": 5978,
    "neys": 33994,
    "\u0120carved": 41826,
    "IMGIMGBGBDZ": 1617,
    "IMGIMGCBEJZ": 2153,
    "<reserved12549>": 12553,
    "<reserved12387>": 12391,
    "\u0120\u00d0\u00b3\u00d0\u00be\u00d0\u00b4\u00d0\u00b8\u00d0\u00bd\u00d0\u00b5": 63949,
    "js": 22349,
    "<reserved09709>": 9713,
    "\u0120spat": 28231,
    "IMGIMGGEZ": 68,
    "\u0120strike": 24450,
    "\u0120lays": 48119,
    "\u0120Honor": 34739,
    "\u0120recruits": 50022,
    "\u0120taxes": 23532,
    "\u0120brewer": 56596,
    "IMGIMGEDHDZ": 4377,
    "IMGIMGHJJAZ": 7994,
    "\u0120nun": 32746,
    "\u0120Volks": 40257,
    "\u0120Grants": 50015,
    "\u0120currently": 19333,
    "omore": 37194,
    "<reserved13989>": 13993,
    "iffs": 26428,
    "ACC": 39378,
    "\u0120glimp": 36980,
    "IMGIMGCAJZ": 213,
    "Wy": 58146,
    "\u0120Fi": 41767,
    "IMGIMGEFJCZ": 4596,
    "\u0120goofy": 62292,
    "\u0120son": 19008,
    "olutions": 31437,
    "naires": 53100,
    "<reserved11498>": 11502,
    "\u0120occurs": 25231,
    "Ele": 42487,
    "\u0120bundles": 54639,
    "\u0120clot": 47266,
    "<reserved10381>": 10385,
    "<reserved15201>": 15205,
    "IMGIMGHJGIZ": 7972,
    "PART": 51454,
    "wel": 56145,
    "<reserved09955>": 9959,
    "\u0120Resolution": 41381,
    "nay": 61925,
    "\u0120hacker": 57313,
    "\u0120summaries": 65503,
    "Chef": 52364,
    "\u0120\u00c3\u0138sterreich": 62828,
    "\u0120dile": 39587,
    "\u0120Tribune": 40655,
    "<reserved15561>": 15565,
    "rad": 20759,
    "\u00e0\u00b4\u00a8": 30976,
    "<reserved14633>": 14637,
    "ler": 17976,
    "\u0120toes": 41491,
    "<reserved08862>": 8866,
    "\u0120organism": 44745,
    "IMGIMGGHBZ": 675,
    "<reserved08917>": 8921,
    "anne": 28067,
    "\u0120Post": 19861,
    "UTION": 59083,
    "<reserved14051>": 14055,
    "\u0120Texans": 51464,
    "liners": 63390,
    "<reserved09922>": 9926,
    "annes": 33220,
    "IMGIMGDHCHZ": 3731,
    "IMGIMGEGFHZ": 4661,
    "IMGIMGHDJEZ": 7398,
    "IMGIMGEFHCZ": 4576,
    "<reserved11675>": 11679,
    "tar": 35834,
    "\u0120surrounds": 55072,
    "IMGIMGGGIZ": 672,
    "\u0120Illustr": 44915,
    "<reserved08870>": 8874,
    "<reserved10944>": 10948,
    "IMGIMGDCJJZ": 3303,
    "\u0120\u00d8\u00b9": 24263,
    "<reserved14209>": 14213,
    "\u0120movies": 22329,
    "<reserved13208>": 13212,
    "\u0120infring": 40916,
    "\u0120Giul": 49980,
    "IMGIMGHADDZ": 7037,
    "\u0120RP": 47830,
    "\u0120reliable": 25915,
    "\u0120IN": 20325,
    "\u0120Factor": 42610,
    "IMGIMGEAECZ": 4046,
    "\u00e2\u0128\u0133": 38414,
    "food": 35668,
    "\u0120Fellows": 61156,
    "\u0120anxious": 33941,
    "IMGIMGHFGDZ": 7567,
    "klad": 50813,
    "PyObject": 59610,
    "\u0120Musik": 51161,
    "\u0120bizarre": 35859,
    "Due": 38810,
    "cultural": 42091,
    "IMGIMGIBDDZ": 8137,
    "<sentinel:255>": 8453,
    "\u0120outsider": 57214,
    "\u0120Cle": 21490,
    "\u0120ET": 26121,
    "\u00d0\u00be\u00d0\u00b3\u00d0\u00be": 22405,
    "\u0120Ethics": 37868,
    "\u0120engineer": 29198,
    "\u0120commence": 37856,
    "\u0120Phillip": 47474,
    "\u0120striker": 42366,
    "\u0120ers": 44286,
    "<reserved11897>": 11901,
    "chan": 19422,
    "Regarding": 52249,
    "oves": 32755,
    "\u0120pavement": 51030,
    "\u0120adhesive": 49001,
    "\u0120Boston": 23448,
    "\u0120Polish": 34443,
    "IMGIMGBEEHZ": 1451,
    "\u0120commanding": 50712,
    "<reserved10806>": 10810,
    "IMGIMGBGIIZ": 1692,
    "\u0120synthesis": 33319,
    "<reserved12605>": 12609,
    "Del": 28115,
    "\u0120Temp": 46552,
    "ilty": 24216,
    "oween": 31187,
    "\u0120correlation": 28667,
    "richt": 32021,
    "\u0120performed": 20888,
    "\u0120Communities": 43327,
    "\u0120lett": 45332,
    "\u00e0\u00b8\u0124\u00e0\u00b8\u0143\u00e0\u00b8\u0129": 60662,
    "tim": 30878,
    "IMGIMGHAGZ": 710,
    "\u0120joys": 60962,
    "\u0120phenomena": 37555,
    "<reserved12488>": 12492,
    "\u0120bat": 23727,
    "\u0120argu": 36373,
    "\u0120Responses": 46499,
    "<reserved12113>": 12117,
    "\u0120predictors": 64024,
    "\u0120northwest": 42840,
    "\u0120cervical": 47172,
    "IMGIMGFGHAZ": 5674,
    "\u0120stack": 25876,
    "\u0120Math": 27293,
    "available": 34469,
    "\u0120ib": 32817,
    "\u0120CAN": 33830,
    "\u0120oncology": 64849,
    "\u0120graphs": 41825,
    "IMGIMGBJAJZ": 1913,
    "IMGIMGFFHFZ": 5579,
    "\u0120achieved": 24086,
    "<reserved12569>": 12573,
    "\u00e0\u00a4\u00b9": 33856,
    "ensions": 22584,
    "\u0120medd": 59463,
    "Jere": 56274,
    "\u0120elementary": 32790,
    "<reserved15676>": 15680,
    "should": 26457,
    "IMGIMGEFBAZ": 4514,
    "IMGIMGFHGGZ": 5770,
    "IMGIMGHIGFZ": 7869,
    "ically": 17587,
    "gomery": 36279,
    "\u0120Equal": 47989,
    "\u0120favourites": 49432,
    "Clark": 57778,
    "Container": 30170,
    "\u0120adjourn": 62895,
    "\u0120platform": 20208,
    "\u0120Heavy": 40070,
    "\u0120Ir": 22007,
    "\u0120entrance": 27308,
    "\u0120NO": 25922,
    "\u0120SER": 49765,
    "<reserved10680>": 10684,
    "\u0120plat": 37494,
    "\u00e7\u00bd\u0133": 56730,
    "<reserved10308>": 10312,
    "\u0120leb": 62488,
    "IMGIMGEIBFZ": 4819,
    "IMGIMGFHIFZ": 5789,
    "IMGIMGDGHFZ": 3679,
    "\u0120appraisal": 54413,
    "height": 25666,
    "\u0120malfunction": 61017,
    "\u0120Amsterdam": 36696,
    "\u0120Task": 31700,
    "IMGIMGFIHZ": 591,
    "\u0120Speaker": 32701,
    "\u0120Air": 20171,
    "<reserved15096>": 15100,
    "\u00e5\u00be": 24520,
    "\u0120Matth": 56093,
    "IMGIMGGDCGZ": 6330,
    "IMGIMGBGDAZ": 1634,
    "\u0120Zap": 64607,
    "\u0120li": 16897,
    "\u0120modules": 31870,
    "\u0120bak": 40702,
    "re": 16644,
    "ophysical": 64389,
    "\u0120Multiple": 39107,
    "ectomy": 63194,
    "<reserved16362>": 16366,
    "\u0120accompl": 22636,
    "<reserved14672>": 14676,
    "Cru": 49674,
    "\u0120Globe": 39213,
    "<reserved10129>": 10133,
    "\u0120failure": 22155,
    "alia": 28832,
    "checkbox": 56733,
    "IMGIMGHFGBZ": 7565,
    "\u0120Oliver": 33088,
    "<reserved14333>": 14337,
    "\u0120\u00e0\u00b2\u0137": 56697,
    "IMGIMGGGAGZ": 6610,
    "worker": 42733,
    "\u0120mosquitoes": 58519,
    "\u0120hue": 59074,
    "ansa": 39156,
    "IMGIMGBEFGZ": 1460,
    "<reserved09851>": 9855,
    "IMGIMGBDAFZ": 1309,
    "IMGIMGBFCZ": 156,
    "\u0120diffusion": 39715,
    "\u0120Starbucks": 44569,
    "\u0120fisheries": 55749,
    "roke": 24610,
    "\u0120KP": 58930,
    "\u0120Rocket": 48596,
    "\u0120seeking": 22963,
    "afe": 37737,
    "<reserved12952>": 12956,
    "\u0120Documents": 52973,
    "parallel": 58717,
    "eg": 21267,
    "\u0120disguised": 61532,
    "\u0120Investments": 46570,
    "marines": 62740,
    "MS": 21332,
    "orial": 21560,
    "\u0120Corps": 31091,
    "\u0120WA": 34384,
    "Boi": 63615,
    "\u0120reinforces": 64345,
    "\u0120guess": 19769,
    "\u0120ibabaw": 52146,
    "\u0120Queens": 30301,
    "Climate": 52782,
    "draft": 62042,
    "Spark": 58232,
    "\u0120abusing": 53394,
    "Purple": 61463,
    "<reserved11471>": 11475,
    "\u0120Tuesdays": 64582,
    "IMGIMGFHIJZ": 5793,
    "aso": 48430,
    "xspace": 46209,
    "\u0120lam": 39732,
    "FORE": 47995,
    "\u0120weakened": 48571,
    "\u0120\u00da\u00a9\u00d9\u0129": 44251,
    "\u0120wall": 19819,
    "<reserved15919>": 15923,
    "\u0120Go": 18054,
    "umberland": 49256,
    "\u0120leaf": 29223,
    "QC": 60920,
    "\u0120Vere": 40561,
    "\u0120Californ": 56881,
    "\u0120Cemetery": 35772,
    "\u0120\u00d1\u0123\u00d0\u00be\u00d1\u0123\u00d1\u0124\u00d0\u00b0\u00d0\u00b2": 49864,
    "\u00e1\u0125\u013f": 28394,
    "\u0120assembling": 64813,
    "<reserved12176>": 12180,
    "<reserved13077>": 13081,
    "\u0120ton": 21183,
    "\u0120sunglasses": 55572,
    "\u0120unsub": 63209,
    "IMGIMGFJIDZ": 5987,
    "server": 27379,
    "\u0120protesting": 48515,
    "Motor": 54694,
    "IMGIMGEEIDZ": 4487,
    "ToString": 38255,
    "<reserved13394>": 13398,
    "noon": 22725,
    "NZ": 52545,
    "\u0120inhibited": 52570,
    "<reserved13706>": 13710,
    "\u0120immensely": 46855,
    "<reserved12053>": 12057,
    "IMGIMGCAGBZ": 2065,
    "IMGIMGFEDCZ": 5436,
    "\u0120Ter": 24859,
    "IMGIMGHCFHZ": 7261,
    "\u0120favorable": 36416,
    "Stars": 47475,
    "wik": 50450,
    "<reserved09212>": 9216,
    "<reserved10989>": 10993,
    "\u0120splash": 46564,
    "<reserved15003>": 15007,
    "IMGIMGGIFBZ": 6855,
    "\u0120cooked": 35879,
    "IMGIMGBHFFZ": 1759,
    "<reserved15325>": 15329,
    "opy": 21087,
    "<reserved09753>": 9757,
    "\u0120lasers": 56571,
    "\u0120Barton": 53735,
    "\u0120piston": 61959,
    "\u0120ISO": 36135,
    "\u0120\u00e0\u00a6\u00a6": 55083,
    "\u0120\u00d8\u00b9\u00d9\u0126": 47881,
    "\u0120generally": 20698,
    "<reserved12197>": 12201,
    "\u0120Neb": 43861,
    "\u0120Exactly": 40010,
    "IMGIMGHIIFZ": 7889,
    "\u0120for": 16715,
    "te": 16820,
    "\u0120observational": 55388,
    "\u0120remar": 62132,
    "attered": 29609,
    "IMGIMGCBIEZ": 2188,
    "<reserved10494>": 10498,
    "issen": 41176,
    "<reserved10859>": 10863,
    "IMGIMGBGGDZ": 1667,
    "\u00ed\u0125": 54979,
    "\u0120Unit": 28323,
    "\u0120acceler": 24872,
    "\u0120pc": 36816,
    "Gra": 43535,
    "background": 33877,
    "\u0120\u00ec\u0124\u00ac": 53380,
    "\u0120An": 17008,
    "\u0120Rubio": 57272,
    "\u0120reopened": 57559,
    "\u0120NSC": 62501,
    "<reserved14638>": 14642,
    "<reserved09457>": 9461,
    "\u0120lawn": 35359,
    "\u0120devote": 41424,
    "<reserved12149>": 12153,
    "\u0120excludes": 63544,
    "<reserved08788>": 8792,
    "ifdef": 43722,
    "renn": 39979,
    "cout": 45258,
    "yg": 44993,
    "\u0120planning": 20695,
    "<reserved09902>": 9906,
    "<reserved12555>": 12559,
    "\u0120Bureau": 28199,
    "endif": 31317,
    "Flu": 59018,
    "\u0120Vanguard": 50419,
    "agh": 38440,
    "\u0120When": 18196,
    "\u0120\u00ce": 18670,
    "<reserved10266>": 10270,
    "\u0120imperative": 41897,
    "IMGIMGCHBFZ": 2719,
    "\u0120cb": 54593,
    "go": 17950,
    "<reserved09519>": 9523,
    "IMGIMGFEAFZ": 5409,
    "<reserved10191>": 10195,
    "<reserved14474>": 14478,
    "IMGIMGEEDBZ": 4435,
    "\u0120described": 20101,
    "<reserved14086>": 14090,
    "<reserved12500>": 12504,
    "\u0120Anthem": 62373,
    "Project": 28711,
    "\u0120gastric": 51775,
    "ardens": 27209,
    "IMGIMGBEDBZ": 1435,
    "\u0120CEO": 22197,
    "\u0120sche": 19850,
[...]
